{
  "version": "1.0",
  "truncation": null,
  "padding": null,
  "added_tokens": [],
  "normalizer": null,
  "pre_tokenizer": {
    "type": "ByteLevel",
    "add_prefix_space": false,
    "trim_offsets": true,
    "use_regex": true
  },
  "post_processor": {
    "type": "ByteLevel",
    "add_prefix_space": true,
    "trim_offsets": false,
    "use_regex": true
  },
  "decoder": {
    "type": "ByteLevel",
    "add_prefix_space": true,
    "trim_offsets": true,
    "use_regex": true
  },
  "model": {
    "type": "BPE",
    "dropout": null,
    "unk_token": null,
    "continuing_subword_prefix": null,
    "end_of_word_suffix": null,
    "fuse_unk": false,
    "byte_fallback": false,
    "ignore_merges": false,
    "vocab": {
      "\u0000": 0,
      "\u0001": 1,
      "\u0002": 2,
      "\u0003": 3,
      "\u0004": 4,
      "\u0005": 5,
      "\u0006": 6,
      "\u0007": 7,
      "\b": 8,
      "\t": 9,
      "\n": 10,
      "\u000b": 11,
      "\f": 12,
      "\r": 13,
      "\u000e": 14,
      "\u000f": 15,
      "\u0010": 16,
      "\u0011": 17,
      "\u0012": 18,
      "\u0013": 19,
      "\u0014": 20,
      "\u0015": 21,
      "\u0016": 22,
      "\u0017": 23,
      "\u0018": 24,
      "\u0019": 25,
      "\u001a": 26,
      "\u001b": 27,
      "\u001c": 28,
      "\u001d": 29,
      "\u001e": 30,
      "\u001f": 31,
      " ": 32,
      "!": 33,
      "\"": 34,
      "#": 35,
      "$": 36,
      "%": 37,
      "&": 38,
      "'": 39,
      "(": 40,
      ")": 41,
      "*": 42,
      "+": 43,
      ",": 44,
      "-": 45,
      ".": 46,
      "/": 47,
      "0": 48,
      "1": 49,
      "2": 50,
      "3": 51,
      "4": 52,
      "5": 53,
      "6": 54,
      "7": 55,
      "8": 56,
      "9": 57,
      ":": 58,
      ";": 59,
      "<": 60,
      "=": 61,
      ">": 62,
      "?": 63,
      "@": 64,
      "A": 65,
      "B": 66,
      "C": 67,
      "D": 68,
      "E": 69,
      "F": 70,
      "G": 71,
      "H": 72,
      "I": 73,
      "J": 74,
      "K": 75,
      "L": 76,
      "M": 77,
      "N": 78,
      "O": 79,
      "P": 80,
      "Q": 81,
      "R": 82,
      "S": 83,
      "T": 84,
      "U": 85,
      "V": 86,
      "W": 87,
      "X": 88,
      "Y": 89,
      "Z": 90,
      "[": 91,
      "\\": 92,
      "]": 93,
      "^": 94,
      "_": 95,
      "`": 96,
      "a": 97,
      "b": 98,
      "c": 99,
      "d": 100,
      "e": 101,
      "f": 102,
      "g": 103,
      "h": 104,
      "i": 105,
      "j": 106,
      "k": 107,
      "l": 108,
      "m": 109,
      "n": 110,
      "o": 111,
      "p": 112,
      "q": 113,
      "r": 114,
      "s": 115,
      "t": 116,
      "u": 117,
      "v": 118,
      "w": 119,
      "x": 120,
      "y": 121,
      "z": 122,
      "{": 123,
      "|": 124,
      "}": 125,
      "~": 126,
      "Ā": 127,
      "ā": 128,
      "Ă": 129,
      "ă": 130,
      "Ą": 131,
      "ą": 132,
      "Ć": 133,
      "ć": 134,
      "Ĉ": 135,
      "ĉ": 136,
      "Ċ": 137,
      "ċ": 138,
      "Č": 139,
      "č": 140,
      "Ď": 141,
      "ď": 142,
      "Đ": 143,
      "đ": 144,
      "Ē": 145,
      "ē": 146,
      "Ĕ": 147,
      "ĕ": 148,
      "Ė": 149,
      "ė": 150,
      "Ę": 151,
      "ę": 152,
      "Ě": 153,
      "ě": 154,
      "Ĝ": 155,
      "ĝ": 156,
      "Ğ": 157,
      "ğ": 158,
      "Ġ": 159,
      "??": 160,
      "????": 161,
      "????????": 162,
      "????????????????": 163,
      "????????????????????????????????": 164,
      "?@": 165,
      "?>": 166,
      "????????????????????????????????????????????????????????????????": 167,
      "??>": 168,
      "??@": 169,
      "????????????????????????????????????????????????????????????????????????????????????????????????????????????????????????????????": 170,
      "@@": 171,
      ">>": 172,
      "????????????????????????": 173,
      "@>": 174,
      "?=": 175,
      "???@": 176,
      "???>": 177,
      "@?>": 178,
      "??>??>": 179,
      "??@??@": 180,
      "????????????????????????????????????????????????????????????????????????????????????????????????????????????????????????????????????????????????????????????????????????????????????????????????????????????????????????????????????????????????????????????????": 181,
      "?>>": 182,
      "@?@": 183,
      ">?@": 184,
      "=>": 185,
      "????????????": 186,
      "AA": 187,
      ">@": 188,
      "????????????????????????????": 189,
      "=@": 190,
      "@?": 191,
      "?<": 192,
      "@=": 193,
      "@>>": 194,
      "?????@": 195,
      "BA": 196,
      "?????>": 197,
      "????????????????????????????????????????????????????????????????????????????????????????????????????????????????????????????????????????????????????????????????????????????????????????????????????????????????????????????????????????????????????????????????????????????????????????????????????????????????????????????????????????????????????????????????????????????????????????????????????????????????????????????????????????????????????????????????????????????????????????????????????????????????????????????????": 198,
      "????????????????????????????????????????????": 199,
      ">=": 200,
      ">@@": 201,
      ">?": 202,
      "==": 203,
      "??=": 204,
      "@??@": 205,
      "AB": 206,
      "????>": 207,
      "???": 208,
      "?>>?>>": 209,
      "@<": 210,
      "????????????????????????????????????????": 211,
      "=?": 212,
      "<>": 213,
      "?>?@": 214,
      "@?@@?@": 215,
      "@?>@?>": 216,
      "BB": 217,
      "?=>": 218,
      "??>?@": 219,
      "????@": 220,
      "??>>": 221,
      "???????@": 222,
      "<@": 223,
      "???????>": 224,
      "CA": 225,
      "?>=": 226,
      "??????@": 227,
      "<=": 228,
      "@>?@": 229,
      "=?@": 230,
      ">?@>?@": 231,
      "><": 232,
      ";@": 233,
      "<?": 234,
      "@????????????????????????": 235,
      "??>??>??>??>": 236,
      "@@@@": 237,
      ">>>>": 238,
      "=<": 239,
      "AC": 240,
      "????????>": 241,
      "?>??>": 242,
      "??@??@??@??@": 243,
      "@?=": 244,
      "??????>": 245,
      "@@>": 246,
      "?;": 247,
      "CB": 248,
      ";>": 249,
      "?>@": 250,
      "<<": 251,
      "?@>": 252,
      "@;": 253,
      "@@?@": 254,
      "BC": 255,
      "??@??@??@": 256,
      "DA": 257,
      "????????@": 258,
      "@>=": 259,
      "?@?>": 260,
      "@:": 261,
      "@=>": 262,
      ">?>": 263,
      "??>??>??>": 264,
      ";=": 265,
      "?@??@": 266,
      "????????????????????????????????????????????????": 267,
      "?@@": 268,
      ";?": 269,
      "??????????????????????????>": 270,
      ">??>": 271,
      "??????????????????????????@": 272,
      "=@@": 273,
      "???????????????????????????????????????????????@": 274,
      ">;": 275,
      ">>=": 276,
      "???????????????????????????????????????????????>": 277,
      "CC": 278,
      "FA": 279,
      "?@@?@": 280,
      "DB": 281,
      "?==": 282,
      "?:": 283,
      "??<": 284,
      ">?@>": 285,
      ";<": 286,
      "AD": 287,
      "??@?>": 288,
      "=;": 289,
      "?>>?>": 290,
      "@>>@>>": 291,
      "???=": 292,
      "????????????????????????????????????????????????????????????????????????????????????????????????????????????????????????????????????????????????????????????????????????????????????????????????????????????????????????????????????????????????????????????????????????????????????????????????????????????????????????????????????????????????????????????????????????????????????????????????????????????????????????????????????????????????????????????????????????????????????????????????????????????????????????????????????????????????????????????????????????????????????????????????????????????????????????????????????????????????????????????????????????????????????????????????????????????????????????????????????????????????????????????????????????????????????????????????????????????????????????????????????????????????????????????????????????????????????????????????????????????????????????????????????????????????????????????????????????????????????????????????????????????????????????????????????????????????????????????????": 293,
      "@?>@": 294,
      ">>>": 295,
      "?????????????????????????@": 296,
      "???????????>": 297,
      "???????????@": 298,
      "?>?>": 299,
      "@>@@": 300,
      "?????????@": 301,
      "????????????????????????????????????????????????????????????????????????????????": 302,
      "BD": 303,
      "<:": 304,
      "??????????@": 305,
      "EA": 306,
      "<;": 307,
      ">@@>@@": 308,
      "???????????????????????????@": 309,
      ">>@": 310,
      ">:": 311,
      "??=??=": 312,
      "????????????????????????????????????????????????????????????????????????????????????????????????????????????????????????????????????????????????????????????????????????????????????????????????????????????????????????????????????????????????????????????????????????????????????????????????????????????????????????????????????????????????????????????????????????????????????????????????????????????????????????????????????????????????????????????????????????????????????????????????????????????????????????????????????????????????????????????????????????????????????????????????????????????????????????????????????????????????????????????????????????????????????????????????????????????????????????????????????????????????????????????????????????????????????????????????": 313,
      "?????????>": 314,
      "?@?@": 315,
      "??????????>": 316,
      "=:": 317,
      "DC": 318,
      ";;": 319,
      "???@??@": 320,
      "????????????????????????????????????????????????????????????????????????????????????????????????????????????????????????????????????????????????????????????????????????????????????????????????": 321,
      "????>?@": 322,
      "????????????????????????>": 323,
      ":>": 324,
      ":@": 325,
      "?????????????????????????>": 326,
      "EB": 327,
      "????@?>": 328,
      "???>?@": 329,
      "????>>": 330,
      "?????@??@": 331,
      "CD": 332,
      "???>>": 333,
      "?><": 334,
      "???>??>": 335,
      ":?": 336,
      "@>@": 337,
      "?>@@": 338,
      "?????>??>": 339,
      ":=": 340,
      "<?@": 341,
      "?>@?>": 342,
      "??=>": 343,
      "??@>": 344,
      "???????????????????????????????@": 345,
      "AE": 346,
      "?<>": 347,
      ";@~": 348,
      "@???@": 349,
      "?=>?=>": 350,
      "???????????????????????????>": 351,
      "GA": 352,
      "?????????????????????????????@": 353,
      "??@?@": 354,
      "@??>": 355,
      ":<": 356,
      "????@@": 357,
      "BE": 358,
      "@><": 359,
      "DD": 360,
      "????????????????????????????????????": 361,
      "FB": 362,
      "@?>??>": 363,
      "???????????????????????????????????????????@": 364,
      "<>@": 365,
      "EC": 366,
      ";:": 367,
      "?????????????????????????": 368,
      "=@?=": 369,
      "???????????????????????????????>": 370,
      "@??": 371,
      "?>>??>": 372,
      "=@=": 373,
      "?>>>": 374,
      "@?<": 375,
      "@????": 376,
      "=>=": 377,
      "@?>>": 378,
      "????????????????????": 379,
      ">><": 380,
      "???????????????@": 381,
      "?>=?>=": 382,
      ">>@>>": 383,
      "@?@??@": 384,
      "@@@": 385,
      "?>??>??>": 386,
      "???????????????????????????????????@": 387,
      "CE": 388,
      ":;": 389,
      "?=<": 390,
      ">?@??@": 391,
      "@>?": 392,
      "?????????????@": 393,
      "???????????????>": 394,
      ">@@>": 395,
      "?>>?>>?>>?>>": 396,
      ">>?@": 397,
      "<@@": 398,
      ">>@@": 399,
      "ED": 400,
      "GB": 401,
      "?<=": 402,
      "????@??@": 403,
      "????>??>": 404,
      "????????????????????????@": 405,
      "::": 406,
      "@?@@": 407,
      "FC": 408,
      "@?>?@": 409,
      "?>?": 410,
      "???????????????????????????????????>": 411,
      "?>??@": 412,
      "???????????????????????????????????????????>": 413,
      "AF": 414,
      "??????": 415,
      "??????????????????????????????>": 416,
      "@?>@@": 417,
      "??????????????????????????????@": 418,
      ">@>>": 419,
      "????????????????????????????>": 420,
      "DE": 421,
      "99": 422,
      "???????": 423,
      "????????????????????????????????????????????????????????????????????????????????????????????????": 424,
      "?>???>": 425,
      "???????????????????@": 426,
      "?????": 427,
      "??;": 428,
      "?????????????????????????????????@": 429,
      "?????>?@": 430,
      "??????????????@": 431,
      "BF": 432,
      "????????????>": 433,
      "@@=": 434,
      ">????????????????????????": 435,
      "@=?@": 436,
      "?=?@": 437,
      "??>@": 438,
      "??????????????????@": 439,
      "<=@": 440,
      "AAA": 441,
      "?????????????????@": 442,
      "=?@=?@": 443,
      "@?@@?@@?@@?@": 444,
      "@>=@": 445,
      "?????????????>": 446,
      "??????????????>": 447,
      "???@?@": 448,
      "EE": 449,
      "?????????????????????????????>": 450,
      "??@??@??@??@??@": 451,
      "??>??>??>??>??>": 452,
      "@?>@?>@?>@?>": 453,
      "??????????????????????????": 454,
      "CF": 455,
      "??@@": 456,
      "@>??>": 457,
      "=><": 458,
      "?????????????????????????>>": 459,
      "@?=@?=": 460,
      "@==": 461,
      ">>?>": 462,
      "FD": 463,
      "@=<": 464,
      "??????????????????>": 465,
      "?=@": 466,
      "?=?": 467,
      "???????????????????????????": 468,
      ";?@": 469,
      "GC": 470,
      "@>?>": 471,
      ">>=>": 472,
      "@??@??@": 473,
      "??????????????????????????????????@": 474,
      "98": 475,
      ">??@": 476,
      "????????????????????????????????????????????????????????????????????????????????????????????????????????????????????????????????????????????????????????????????": 477,
      "???????????????????????????????????????????????@???????????????????????????????????????????????@": 478,
      "HA": 479,
      "???????????????????????@": 480,
      "????????@??@": 481,
      ">?@>?@>": 482,
      "???????????????????>": 483,
      "???????????????????????????????????????????????>???????????????????????????????????????????????>": 484,
      "?>>?>>?>>": 485,
      "DF": 486,
      "89": 487,
      "@???>": 488,
      "???????????????????????>": 489,
      "?????>>": 490,
      "@?@@?@@?@": 491,
      "AG": 492,
      "????????>??>??>??>??>": 493,
      "?~": 494,
      "?>??>>": 495,
      "????????????????????????=": 496,
      "??????????????????????????????????????????@": 497,
      "?>???@": 498,
      "AAB": 499,
      "????????????@": 500,
      "?????????????????????????????????????????@": 501,
      ";>@": 502,
      "HB": 503,
      "?????????????????????@": 504,
      "?=>@": 505,
      "??=?@": 506,
      "??????????????????????????????????>": 507,
      "FE": 508,
      "??????????????????????????????????????@": 509,
      "?>;": 510,
      "??>?@>": 511,
      "BG": 512,
      ">=<": 513,
      "@@>>": 514,
      "@=@": 515,
      "????????>??>": 516,
      "=>@=>": 517,
      ">?@>>": 518,
      "GD": 519,
      ">>>>>>>>": 520,
      "@>;": 521,
      "@=?": 522,
      "@@?": 523,
      "?<<": 524,
      "???@@": 525,
      "????????????????>": 526,
      "????????????????????????????????>": 527,
      "@@>@": 528,
      "?????>??>??>": 529,
      "????????????????????>": 530,
      "??@@?@": 531,
      "@?;": 532,
      "??????????????????????????????????????????>": 533,
      "?>>?@": 534,
      "?>@??@": 535,
      ">=@": 536,
      ">>=>>=": 537,
      "88": 538,
      "??????>?@": 539,
      "?????????????????>": 540,
      "????>@": 541,
      ">@@?@": 542,
      "@@@@@@@@": 543,
      "==@": 544,
      "????????????????????????????????????????????????????????????????????????????????????????????????????????????????????????????????????????????????????????????????????????????????????????????????????????????????????????????????????????????????????????????????????????????????????????????????????????????????????????????????????????????????????????????????????????????????????????????????????????????????????????????????????????????????????????????????????????????????????????????????????????????????????????????????????????????????????????????????????????????????????????????????????????????????????????????????????????????????????????????????????????????????????????????????????????????????????????????????????????????????????????????????????????????????????????????????????????????????????????????????????????????????????????????????????????????????": 545,
      "CG": 546,
      "?????????????????????????????????>": 547,
      "97": 548,
      "?????@??@??@": 549,
      "EF": 550,
      "??>??>>": 551,
      ">>;": 552,
      "@@?>": 553,
      "???@?>": 554,
      "???@>": 555,
      "???????????????????????????????": 556,
      "????????@??@??@??@??@": 557,
      "????@>": 558,
      ">>?": 559,
      "????????????????????????????@": 560,
      "????????????????????????????????????????????????????????????????????????????????????????????????????????????????????????????????????????????????????????????????????????????????????????????????????????????????????????????????????????????????????????????????????????????????????????????????????????????????????????????????????????????????????????????????????????????????????????????????????????????????????????????????????????????????????????????????????????????????????????????????????????????????????????????????????????????????????????????????????????????????????????????????????????????????????????????????????????????????????????????????????????????????????????????????????????????????????????????????????????????????????????????????????????????????????????????????????????????????????????????????????????????????????????????????????????????????????????????????????????????????????????????????????????????????????????????????????????????????????????????????????????????????????????????????????????????????????????????????????????????????????????????????????????????????????????????????????????????????????????????????????????????????????????????????????????????????????????????????????????????????????????????????????????????????????????????????????????????????????????????????????????????????????????????????????????????????????????????????????????????????????????????????????????????????????????????????????????????????????????????????????????????????????????????????????????????????????????????????????????????????????????????????????????????????????????????????????????????????????????????????????????????????????????????????????????????????????????????????????????????????????????????????????????????????????????????????????????????????????????????????????????????????????????????????????????????????????????????????????????????????????????????????????????????????": 561,
      "@?????????????????????????@": 562,
      "@>=@>=": 563,
      "HC": 564,
      "79": 565,
      ">>@>": 566,
      "@?@?@": 567,
      "??=??>": 568,
      "~=": 569,
      "?=>?=": 570,
      ">?;": 571,
      "??????????????????????@": 572,
      "??@??": 573,
      "???????????????????????????????????????@": 574,
      "??????@??@": 575,
      "?=;": 576,
      "????????????????????????????????????????????>": 577,
      ">?@@": 578,
      "??????>??>": 579,
      "?????????????????????????????????????@": 580,
      "?>>@": 581,
      "???????????????": 582,
      "????????????????????@": 583,
      "DG": 584,
      ">@@>@": 585,
      "@?>@??@": 586,
      "?>>@>>": 587,
      "????????????????????????????????@": 588,
      "=????????????????????????": 589,
      ">??": 590,
      "?=@@": 591,
      "=?>": 592,
      "FF": 593,
      "????????????????????????????????????>": 594,
      "???????????????????????????????????????>": 595,
      "AH": 596,
      "?==?==": 597,
      "=>==": 598,
      "GE": 599,
      "@>@@?@": 600,
      "@>?@>": 601,
      "IA": 602,
      "HD": 603,
      "?@@??@": 604,
      "=>>": 605,
      "??????????????????????????????????????>": 606,
      "??=@": 607,
      "@@??@": 608,
      "?>@?>@?>": 609,
      ";@@": 610,
      "=>@<": 611,
      "BH": 612,
      ";=@": 613,
      "???<": 614,
      "=>@": 615,
      "=@@=@@": 616,
      ">@>": 617,
      "??>??>?@": 618,
      "?????????????????????>": 619,
      "?????????????????????????????????????????>": 620,
      "IB": 621,
      "@=@@": 622,
      "78": 623,
      "==<": 624,
      "????????????????????????????????????@": 625,
      ">>??>": 626,
      ">?@?@": 627,
      "??>>?>>": 628,
      "@=;": 629,
      "69": 630,
      "@<<": 631,
      "87": 632,
      ">>@?>": 633,
      "?????@?>": 634,
      "??>>?>": 635,
      "EG": 636,
      "=>;": 637,
      "@@@?@": 638,
      "???????>??>": 639,
      ">?=": 640,
      "???????@??@": 641,
      "?@?": 642,
      "BAA": 643,
      "=??>": 644,
      "????????????????????????????????????????????????????????????????????????????????????????????????????????????????????????????????????????????????????????????????????????????????????????????????????????????????????????????????????????????????????????????????????????????????????????????????????????????????????????????????????????????????????????????????????????????????????????????????????????????????????????????????????????????????????????????????????????????????????????????????????????????????????????????????????????????????????????????????????????????????????????????????????????????????????????????????????????????????????????????????": 645,
      "ABA": 646,
      "@@>?@": 647,
      "????@>>": 648,
      "96": 649,
      "??????????": 650,
      ">=>": 651,
      "?@@?@@?@": 652,
      "CH": 653,
      "?@@>": 654,
      "GF": 655,
      "?>??>??>??>??>": 656,
      "?????????????????????????????>?@": 657,
      "??:": 658,
      ">@?": 659,
      "@??????????????????????????@": 660,
      "??????????????????????>": 661,
      "????????????????????????????????????????????@": 662,
      "???@??@??@": 663,
      "@>>@>>@>>": 664,
      ">==": 665,
      "??????????????????????????????????????????????@": 666,
      ">?@>?@>?@": 667,
      "IC": 668,
      "HE": 669,
      "????????????????????????????????????????????????????????????????????????????????????????????????????????????????????????????????????????????????????????????????????????????????????????????????????????????????????????????????????????????????????????????????????????????????????????????????????????????????????????????????????????????????????????????????????????????????????????????????": 670,
      ">@?>": 671,
      "?????????????????????????????????????>": 672,
      "???????????????????????????????????????????@???@": 673,
      "?>>??>??>": 674,
      ">=;": 675,
      "????????????????@": 676,
      "????????????????????????<": 677,
      "??<??<": 678,
      "????????????????????????????????????????????????????????????????????????????????????????????????????????????????": 679,
      "???>??>??>": 680,
      "FG": 681,
      "?@=": 682,
      ">@??@": 683,
      "@>@@>": 684,
      "<><": 685,
      "????@>?@": 686,
      "???>?>": 687,
      "77": 688,
      "??????????????????????????????????????????????>": 689,
      "???>??>??>??>??>": 690,
      "=?;": 691,
      "ID": 692,
      "BBA": 693,
      "@=>@=>": 694,
      "??????????????????": 695,
      "68": 696,
      "=?@=": 697,
      "@<>": 698,
      "@@@@@@": 699,
      "????@@?@": 700,
      "@?>@>>": 701,
      "DH": 702,
      "@?@>": 703,
      "@>??@": 704,
      "@????>": 705,
      "=@==": 706,
      "????=": 707,
      "?????????????????????????=": 708,
      "@@<": 709,
      "@@>@@": 710,
      "JA": 711,
      "?>>?>>?>": 712,
      "AAC": 713,
      "@~": 714,
      "????@@>": 715,
      "?@>>": 716,
      "??@>?@": 717,
      "=@>>": 718,
      "?????????????????????????????": 719,
      "BI": 720,
      "86": 721,
      ">>>>>>": 722,
      "@>?@>?@": 723,
      "@?>??>??>": 724,
      "AI": 725,
      "?????@>": 726,
      "?=??>": 727,
      "???????@>": 728,
      ":?@": 729,
      "?<;": 730,
      "JB": 731,
      "EH": 732,
      "????@??@??@": 733,
      "???@??@??@??@??@": 734,
      "????@?@": 735,
      "@????????????????????????????": 736,
      "???????????????????????????????????????????????????????????????????????????????????????????????@": 737,
      "????????????????????????????????????????????????????????????????????????????????????????????????????????????????????????????????????????????????????????????????????????????????????????????????????????????????????????????????????????????????????????????????????????????????????????????????????????????????????????????????????????????????????????????????????????????????????????????????????????????????????????????????????????????????????????????????": 738,
      "?>@>": 739,
      "?>@??@??@": 740,
      "?=@?=": 741,
      "??=@?=": 742,
      "59": 743,
      "???>@": 744,
      "??????????????????????????>?@": 745,
      "???????????????????????????????????????????????????????????????????????????????????????????????>": 746,
      "?@>??>": 747,
      "?????????????????????????????????????????????@": 748,
      "GG": 749,
      "@?@@?": 750,
      "<????????????????????????": 751,
      "??????????????????????????>????????>??>??>??>??>": 752,
      "?>?@>": 753,
      ">?@>?@>?@>": 754,
      "????@??@??@??@": 755,
      "????>??>??>": 756,
      "HF": 757,
      "@?:": 758,
      "@?>@?>@?>": 759,
      "CI": 760,
      "?????????": 761,
      "??>?>": 762,
      "@>@?>": 763,
      "??????????@??@": 764,
      "=>?": 765,
      "??????????>??>": 766,
      ">?>>": 767,
      "???????????????????????????????????????????>???>": 768,
      ">@=": 769,
      "?<?": 770,
      "????????????????????????????????????????>": 771,
      ">=?": 772,
      "????????????????????????>>": 773,
      ">?@?>": 774,
      "95": 775,
      "????>@@": 776,
      "==;": 777,
      "?=??=": 778,
      "?<>?<>": 779,
      "=@?": 780,
      "IE": 781,
      "@?????@": 782,
      "?????????????????????????????????????????????>?@": 783,
      "67": 784,
      "JC": 785,
      "?>:": 786,
      "@?@??@??@": 787,
      "@<=": 788,
      "@>:": 789,
      "FH": 790,
      "?@@@": 791,
      "?>@>>": 792,
      "76": 793,
      "@<;": 794,
      "JD": 795,
      ":>@": 796,
      "?????????????????????????????????????????????@?>": 797,
      "????>??>??>??>": 798,
      "?<@": 799,
      "????????????????????????>?@": 800,
      "????????????????????????????????????????????????????????????????????????????????????????????????????????????????????????????????????????????????????????????????????????????????????????????????????????????????????????????????????????????????????????????????????????????????????????????????????????????????????????????????????????????????????????????????????????????????????????????????????????????????????????????????????????????????????????????????????????????????????????????????????????????????????????????????????????????????????????????????????????????????????????????????????????????????????????????????????????????????????????????????????????????????????????????????????????????????????????????????????????????????????????????????????????????????????????????????????????????????????????????????????????????????????????????????????????????????????????????????????????????????????????????????????????????????????????????????????????????????????????????????": 801,
      "??@??>": 802,
      "?????????????????????????????@?>": 803,
      "??>>??>": 804,
      "?=>>": 805,
      "85": 806,
      ">?@>?@>?@>?@": 807,
      "????????????????????????>?>": 808,
      "???????>>": 809,
      "??=?": 810,
      "=@>": 811,
      "????????>??>??>": 812,
      "?????????????????": 813,
      "<>;": 814,
      ">>?>>": 815,
      "????????@??@??@": 816,
      "@?>?>": 817,
      "????????????????????????????????????????????????????????????????????????????????????????????????????????????????????????????????????????????????????????????????????????????????????????????????????????????????????????????????????????????????????????????????????????????????????????????????????????????????????????????????????????????????????????????????????????????????????????????????????????????????????????????????????????????????????????????????????????????????????????????????????????????????????????????????????????????????????????????????????????????????????????????????????????????????????????????????????????????????????????????????????????????????????????????????????????????????????????????????????????????????????????????????????????????????????????????????????????????????????????????????????????????????????????????????????????????????????????????????????????????????????????????????": 818,
      "?><?><": 819,
      "DI": 820,
      "?????=": 821,
      "58": 822,
      "?@@??@??@": 823,
      ">?@>??>": 824,
      "<=<": 825,
      "????@???@": 826,
      "KA": 827,
      "BJ": 828,
      "@>???>": 829,
      "=>@>>": 830,
      "????????????????????????????????????????????????????????????????????????????????????????????????????????????????????????????????????????????????????????????????????????????????????????????????????????????????????????????????????????????????????????????????????????????????????????????????????????????????????????????????????????????????????????????????????????????????????????????????????????????????????????????????????????????????????????????????????????????????????????????????????????????????????????????????????????????????????????????????????????????????????????????????????????????????????????????????????????????????????????????????????????????????????????????????????????????????????????????????": 831,
      "=>@=": 832,
      "??@>>": 833,
      "@??@?@": 834,
      ">?:": 835,
      ">?@??@??@": 836,
      "CBA": 837,
      "AAAA": 838,
      "????>>@": 839,
      "????????????????????????@@": 840,
      "49": 841,
      "@<?": 842,
      "===": 843,
      "????>???>": 844,
      "GH": 845,
      ">>:": 846,
      "??<>": 847,
      "66": 848,
      "?=:": 849,
      "AJ": 850,
      "?=?>": 851,
      "=@@=": 852,
      "KB": 853,
      "???????>??>??>": 854,
      "IF": 855,
      "??>@?>": 856,
      "@?@?>": 857,
      "????????????????????????????????????????????????????????????????????????????????????????????????????????????????????????????????????????????????????????????????????????????????????????????????????????????????????????????????????????????????????????????????????????????????????????????????????????????????????????????????": 858,
      "?>?@?@": 859,
      "@???": 860,
      "???????@??@??@": 861,
      "@<@": 862,
      "????????????????????????????@@": 863,
      "HG": 864,
      "??=??>??>": 865,
      "?>>@?>": 866,
      "??>@@": 867,
      "?????????@??@": 868,
      "JE": 869,
      "57": 870,
      "?>?@??@": 871,
      "ABB": 872,
      "?<>@": 873,
      "@?????>": 874,
      "94": 875,
      ">???@": 876,
      ">???>": 877,
      "????????????????????????????>?@": 878,
      "?>>?>??>": 879,
      "EI": 880,
      "??@?": 881,
      "<?;": 882,
      "?>>?>>??>": 883,
      "?>=>": 884,
      "=?:": 885,
      "CJ": 886,
      "=@=<@": 887,
      "?????????????????????????????????????????????>": 888,
      "????????????????????????@?@": 889,
      "?????@?@": 890,
      "@?@@??@": 891,
      "?????@??@??@??@": 892,
      "@?<@": 893,
      ">>??@": 894,
      "?>>>>>": 895,
      "FI": 896,
      "?=>?>>": 897,
      "????????????????????????????????????????????@??@": 898,
      "KC": 899,
      "???@>?@": 900,
      "?@>?@": 901,
      ";????????????????????????": 902,
      "75": 903,
      "=>:": 904,
      "=?=": 905,
      "?????????>??>": 906,
      "?>>@@": 907,
      "@=:": 908,
      "????????????????????????????????????????????>??>": 909,
      "=??": 910,
      "???>???>": 911,
      "??>??@": 912,
      "ABC": 913,
      "?>>?>>?>>?>>?>>": 914,
      "KD": 915,
      "????????????????????????@?>": 916,
      "??????@?>": 917,
      "==?": 918,
      "?@<": 919,
      "=@<": 920,
      "84": 921,
      "IG": 922,
      "???????????????????????????????????????": 923,
      "??>?": 924,
      "@>@@>@@>@@": 925,
      "??????>>": 926,
      "@>@@>@@": 927,
      "??????????>?@": 928,
      ":@@": 929,
      ">>@>?@": 930,
      "??=??=??=??=": 931,
      "???????>@": 932,
      "HH": 933,
      "??@???@": 934,
      "@>>@": 935,
      "?>?>>": 936,
      "48": 937,
      "??@??@??@??@??????????????????????????@": 938,
      "@?@@>": 939,
      "@?>?": 940,
      ">=?@": 941,
      "????????????????????????;": 942,
      "@?>??>??>??>??>": 943,
      "DJ": 944,
      ">=:": 945,
      "???????????>??>": 946,
      "=>?=": 947,
      "=>@@": 948,
      "@?????????????????????????": 949,
      "?@@?@@": 950,
      "<=;": 951,
      "??>=": 952,
      "BK": 953,
      "???????????@??@": 954,
      "@>???@": 955,
      "?????>??>??>??>": 956,
      "????????????????????????????????????????????????????????????????????????????????????????????????????????????????????????????????????????????????????????????????????????????????????????????????????????????????????????????????????????????????????????????????????????????????????????????????????????????????????????????????????????????????????????????????????????????????????????????????????????????????????????????????????????????????????????????????????????????????????????????????????????????????????????????????????????????????????????????????????????????????????????????????????????????????????????????????????????????????????????????????????????????????????????????????????????????????????????????????????????????????????????????????????????????????????????????????????????????????????????????????????????????????????????????????": 957,
      ":=@": 958,
      "@?>=": 959,
      "65": 960,
      "GI": 961,
      "=>==>=": 962,
      "@>>@@": 963,
      "?>@?>@": 964,
      "JF": 965,
      "@???????????????????????????@": 966,
      "?>??": 967,
      "CAA": 968,
      "????????????????????????????????????????????????????????????????????????????????????????????": 969,
      ":@~": 970,
      ">>@?@": 971,
      "LA": 972,
      "?????>@": 973,
      "???????????????????????????????????????????????": 974,
      "<>@<>@": 975,
      "BAB": 976,
      "?<:": 977,
      ">?@=": 978,
      "ACA": 979,
      "???>@@": 980,
      "KE": 981,
      "<?@<?@": 982,
      "?>>?>>?>>?>": 983,
      "?@@?": 984,
      "39": 985,
      "????????????????????????????????????????@": 986,
      ">><>": 987,
      "47": 988,
      "@>@>": 989,
      ">?@>?": 990,
      ">>@>>@>>": 991,
      "????????????????????????>@": 992,
      "LB": 993,
      "=@=>": 994,
      ">=@@": 995,
      "====": 996,
      "56": 997,
      "??????????????????????????????": 998,
      "???@???@": 999,
      "74": 1000,
      "EJ": 1001,
      "?>?@?>": 1002,
      "LC": 1003,
      "?????????????????????????@@": 1004,
      "????????????????????????????@?>": 1005,
      "?????????????????????????@>": 1006,
      "@?@@@": 1007,
      "HI": 1008,
      "AK": 1009,
      "?????@?????@": 1010,
      "==>": 1011,
      "?@???@": 1012,
      "@>?@??@": 1013,
      "93": 1014,
      "=?@>": 1015,
      "><;": 1016,
      "????????>?@": 1017,
      "?????>??>??>??>??>": 1018,
      "????????????????????????????????????????????????????????????????????????????????????????????????????????????????????????????????????????????????????????????????????????????????????????????????????????????????????????????????????????????????????????????????????????????????????????????????????????????????????????????????????????????????????????????????????????????????????????????????????????????????????????????????????????????????????????????????????????????????????????????????????????????????????????????????????????????????????????????????????????????????????????????????": 1019,
      "=@=<@????????????????????????????????????????????????????????????????????????????????????????????????????????????????????????????????????????????????????????????????????????????????????????????????????????????????????????????????????????????????????????????????????????????????????????????????????????????????????????????????????????????????????????????????????????????????????????????????????????????????????????????????????????????????????????????????????????????????????????????????????????????????????????????????????????????????????????????????????????????????????????????????????????????????????????????????????????????????????????????????????????????????????????????????????????????????????????????????????????????????????????????????????????????????????????????????????????????????????????????????????????????????????????????????????????????????????????????????????????????????????????????????????????????????????????????????????????????????????????????????????????????????????????????????????????????????????????????????????????????????????????????????????????????????????????????????????????????????????????????????????????????????????????????????????????????????????????????????????????????????????????????????????????????????????????????????????????????????????????????????????????????????????????????????????????????????????????????????????????????????????????????????????????????????????????????????????????????????????????????????????????????????????????????????????????????????????????????????????????????????????????????????????????????????????????????????????????????????????????????????????????????????????????????????????????????????????????????????????????????????????????????????????????????????????????????????????????????????????????????????????????????????????????????????????????????????????????????????????????????????????????????????????????????????": 1020,
      "??????@??@??@": 1021,
      "?>?@??@??@??@??@": 1022,
      "?>=?>>": 1023,
      ">><>><": 1024,
      "@>@??@": 1025,
      "?=>?=>?=>": 1026,
      "AAD": 1027,
      "JG": 1028,
      "38": 1029,
      "@?????????????????????????>": 1030,
      "@<:": 1031,
      ">>>=": 1032,
      "?????????????????????????>?@": 1033,
      "?<?@": 1034,
      "?????>?????>": 1035,
      "????????????????????????@>": 1036,
      "????????????????????????@>>": 1037,
      "KF": 1038,
      "?>>?": 1039,
      "LD": 1040,
      "?>=?>": 1041,
      "????????????????????????????????????????????????????????????????????????????????????????????????????????????????????????????????????????????????????????????????????????????????": 1042,
      "???????????????????????????=": 1043,
      "IH": 1044,
      ">@@>?@": 1045,
      "?????????????": 1046,
      "FJ": 1047,
      "@><@><": 1048,
      "@?<@?<": 1049,
      "???>??@": 1050,
      "?<=?<=": 1051,
      "??????????????????????????>????????>??>??>??>??>??????????????????????????>????????>??>??>??>??>": 1052,
      "<<@": 1053,
      "@?@@?@??@": 1054,
      "??==": 1055,
      "??>?>>": 1056,
      "??????@?@": 1057,
      "55": 1058,
      "83": 1059,
      "????@?>?@": 1060,
      "CK": 1061,
      "<?>": 1062,
      "???>@?>": 1063,
      "@>>>": 1064,
      "@@?@@?@": 1065,
      "??????????????????????????@????????@??@??@??@??@": 1066,
      "???????????????????????????????????????????????????????????????????????????????????????????????????????????????????????????????????????????????@": 1067,
      "????>??>??>??>??>": 1068,
      "??????????????????????????>>": 1069,
      "=>@<=@=<@????????????????????????????????????????????????????????????????????????????????????????????????????????????????????????????????????????????????????????????????????????????????????????????????????????????????????????????????????????????????????????????????????????????????????????????????????????????????????????????????????????????????????????????????????????????????????????????????????????????????????????????????????????????????????????????????????????????????????????????????????????????????????????????????????????????????????????????????????????????????????????????????????????????????????????????????????????????????????????????????????????????????????????????????????????????????????????????????????????????????????????????????????????????????????????????????????????????????????????????????????????????????????????????????????????????????????????????????????????????????????????????????????????????????????????????????????????????????????????????????????????????????????????????????????????????????????????????????????????????????????????????????????????????????????????????????????????????????????????????????????????????????????????????????????????????????????????????????????????????????????????????????????????????????????????????????????????????????????????????????????????????????????????????????????????????????????????????????????????????????????????????????????????????????????????????????????????????????????????????????????????????????????????????????????????????????????????????????????????????????????????????????????????????????????????????????????????????????????????????????????????????????????????????????????????????????????????????????????????????????????????????????????????????????????????????????????????????????????????????????????????????????????????????????????????????????????????????????????????????????????????????????????????????????": 1070,
      "?=??@": 1071,
      "==:": 1072,
      "??>?????@": 1073,
      "<?:": 1074,
      "???=>": 1075,
      "@@@@?@": 1076,
      "??>>@": 1077,
      ">?@>?@>?@>?@>": 1078,
      ">>>@": 1079,
      "@@@@@": 1080,
      ">?@@@": 1081,
      "64": 1082,
      "??????????????????????????>??@": 1083,
      "??????????????????????????=": 1084,
      "????????@?>": 1085,
      "??>>?>??>": 1086,
      ";<@": 1087,
      "??????????????????????????????????????????": 1088,
      "??>?@??@": 1089,
      "29": 1090,
      "DBA": 1091,
      "DK": 1092,
      "<>>": 1093,
      "??=??=??=": 1094,
      "???????????????????????????????????????????????????????????????????????????????????????????????????????????????????????????????????????????????>": 1095,
      "LE": 1096,
      "@@;": 1097,
      "46": 1098,
      "CBB": 1099,
      "GJ": 1100,
      "@<>@": 1101,
      "??>???>": 1102,
      "=>?>": 1103,
      "???@>>": 1104,
      "MA": 1105,
      "???@??@??@??@": 1106,
      "MB": 1107,
      "?=@?>": 1108,
      "@@@>": 1109,
      "<>:": 1110,
      "??>?@>?@": 1111,
      "??????@>": 1112,
      "37": 1113,
      "??????????@?>": 1114,
      "??????????????????????????????????????????????@>": 1115,
      ">~": 1116,
      "@>@@>@": 1117,
      "??@??@?@": 1118,
      "MC": 1119,
      ";?~": 1120,
      ">?<": 1121,
      ">@?@": 1122,
      "?????????????????????????????????": 1123,
      "@>??>??>": 1124,
      ">@@>@@>@@>@@": 1125,
      "II": 1126,
      "=@?>": 1127,
      "??????>??>??>": 1128,
      "?????????>?@": 1129,
      "=@==@=": 1130,
      "@?>@?>@": 1131,
      "@<?@": 1132,
      "JH": 1133,
      "73": 1134,
      "???@?": 1135,
      "@>=@?=": 1136,
      "BL": 1137,
      ">>>?>": 1138,
      "=??@": 1139,
      "?????>??@": 1140,
      "@>>?@": 1141,
      "???????????????????????????????????????????????????????": 1142,
      "?>@??>": 1143,
      "KG": 1144,
      "28": 1145,
      "?=<?=<": 1146,
      "ABD": 1147,
      "?==?=": 1148,
      "CCA": 1149,
      "92": 1150,
      ":????????????????????????": 1151,
      "><@": 1152,
      "AL": 1153,
      "??????????????????????????????????": 1154,
      "????=>": 1155,
      "@@>@?>": 1156,
      "EK": 1157,
      "@?>@??@??@": 1158,
      "54": 1159,
      "??????????????????????????????????>?@": 1160,
      "??????????????????????????@??@": 1161,
      "??????????????????????????????????????": 1162,
      "???@?@??@": 1163,
      "@??@?>": 1164,
      "@?@@?@@?@@": 1165,
      "?>>=": 1166,
      "LF": 1167,
      "????????????????????????????@???@": 1168,
      ">>>>>>>": 1169,
      "?@??": 1170,
      "@??@>": 1171,
      "=<;": 1172,
      "HJ": 1173,
      "82": 1174,
      "??@@@": 1175,
      "BBB": 1176,
      "45": 1177,
      "@>?=": 1178,
      "?<>?<": 1179,
      "@?@@?@@": 1180,
      ">?????????????????????????": 1181,
      "?>=@": 1182,
      "@>??": 1183,
      "36": 1184,
      "?>>?=": 1185,
      "@?>>>": 1186,
      "?>????????????????????????": 1187,
      "?>>?>??>??>": 1188,
      "?@>@": 1189,
      "????????>@": 1190,
      "@???????????????????????????>": 1191,
      "?>?=": 1192,
      "???????=": 1193,
      ">@@=": 1194,
      "?????????@?>": 1195,
      ";>;": 1196,
      "????????????????????????????????????????????????>": 1197,
      "FK": 1198,
      "??>>?>>?>>": 1199,
      "MD": 1200,
      "?????????????????????????????>>": 1201,
      "><:": 1202,
      "???>??>??>??>": 1203,
      "27": 1204,
      "?@>??>??>": 1205,
      ":<@": 1206,
      "CL": 1207,
      "@==@": 1208,
      "??@@>": 1209,
      "63": 1210,
      "????????>>": 1211,
      "?????@??>": 1212,
      "????>?>": 1213,
      "???????????????????????????????????????????@???@???????????????????????????????????????????@???@": 1214,
      "@<@@": 1215,
      "????????????????????????>??": 1216,
      "??@???>": 1217,
      "<@~": 1218,
      "19": 1219,
      "=><=": 1220,
      "@@>?>": 1221,
      "??????????????????????????????????????????????>@": 1222,
      "????????????????????????:": 1223,
      "BCA": 1224,
      "????????????????????????????????????????????????????????????????????????????": 1225,
      "GK": 1226,
      ">>=>>=>": 1227,
      "???@??>": 1228,
      "@>?@>>": 1229,
      "@?????????????????????????@@": 1230,
      "ME": 1231,
      "=??=": 1232,
      ">????": 1233,
      "????????@@": 1234,
      "<@?=": 1235,
      "?@@?@@??@": 1236,
      "?????????????????????????<": 1237,
      "???>?": 1238,
      "<@>": 1239,
      "??@??@?????@": 1240,
      "?>>?>>?>>?>>?>": 1241,
      "????????@>": 1242,
      "JI": 1243,
      "??>?@?>": 1244,
      "@@?@??@": 1245,
      "<=:": 1246,
      "????@??@??@??@??@": 1247,
      "????????????????????????????>>": 1248,
      "???????>?@": 1249,
      ">@<": 1250,
      "@????????????????????????>": 1251,
      "?>=?>=?>=": 1252,
      "DL": 1253,
      "????????????@??@": 1254,
      "????>@?>": 1255,
      "?>@?@": 1256,
      "72": 1257,
      "KH": 1258,
      "????????????????????????????????????????????????@": 1259,
      "??=@@": 1260,
      ">?@>??>??>": 1261,
      ">@?=": 1262,
      "????????????>??>": 1263,
      ">@@??@": 1264,
      "???????????????????????": 1265,
      "<@@<@@": 1266,
      "????@?????@": 1267,
      "???>?>??>": 1268,
      "?>>?>=": 1269,
      "?;;": 1270,
      "MF": 1271,
      "@??@@": 1272,
      "?==@": 1273,
      "?@@?@??@": 1274,
      "35": 1275,
      "@?@??": 1276,
      ">>>>>": 1277,
      "?????????????????????????????????@?>": 1278,
      "><?": 1279,
      "?????????????????????????>@": 1280,
      "?@@??": 1281,
      "18": 1282,
      "=>?@": 1283,
      "???????????>?@": 1284,
      "?>?@@": 1285,
      ">@=>": 1286,
      "><>": 1287,
      "@?@??@??@??@": 1288,
      "?>>??>??>??>": 1289,
      "???;": 1290,
      "@?>@?>??>": 1291,
      "@>=@>>": 1292,
      "44": 1293,
      "?<=@": 1294,
      "????????????????????????@??": 1295,
      "BM": 1296,
      "IJ": 1297,
      ">>==": 1298,
      "????@???>": 1299,
      "??????????????????????????????>?@": 1300,
      "EL": 1301,
      "?>?????>": 1302,
      "???????????????????????????????????????????????@???????????????????????????????????????????????@???????????????????????????????????????????????@???????????????????????????????????????????????@": 1303,
      "???????????????????????????????????????????????????????????????????????????????????????????@": 1304,
      "=@@=@": 1305,
      "=<:": 1306,
      "ACB": 1307,
      "=@==@": 1308,
      "=>=>": 1309,
      "????????????????????????>@@": 1310,
      "????>?@?>": 1311,
      ">>?=": 1312,
      "26": 1313,
      "@?@?": 1314,
      ";=;": 1315,
      "NB": 1316,
      "???@?????@": 1317,
      "NA": 1318,
      "?>@?=": 1319,
      "<??": 1320,
      "?<@@": 1321,
      "LG": 1322,
      "@?>@?>@?>@?>@????????????????????????": 1323,
      "?@??>": 1324,
      ">?@??": 1325,
      "DCA": 1326,
      "??@??@>": 1327,
      "=<@": 1328,
      "91": 1329,
      "HK": 1330,
      "?=>?>": 1331,
      "?;:": 1332,
      "53": 1333,
      "?????????@>": 1334,
      "?=@>": 1335,
      "<<;": 1336,
      "@?>@?>@?>@": 1337,
      "?;>": 1338,
      "?>@@>": 1339,
      "??@@?": 1340,
      ">?;>": 1341,
      ">>@=": 1342,
      "????????????????????????@??@": 1343,
      "????????????????????????????????????????????????????????????????????????????????????????????????????????????????????????????????????????????????????????????????????????????????????????????????????????????????????????????????????????????????????????????????????????????????????????????????????????????????????????????????????????????????????????????????????????????????????????????????????????????????????????????????????????????????????????????????????????????????????????????????????????????????????????????????????????????????????????????????????????????????????????????????????????????????????????????????????????????????????????????????????????????????????????????????????????????????????????????????????????????????????????????????????????????????????????????????????????????????????????????????????????????????????????????????????????????????????????????????????????????????????????????????????????????????????????????????????????????????????????????????????????????????????????????????????????????????????????????????????????????????????????????????????????????????????????????????????????????????????????????????????????????????????????????????": 1344,
      "KI": 1345,
      ">@??>": 1346,
      "???????????": 1347,
      "@>>@>>@>>@>>": 1348,
      "?????????????????????????????@??@": 1349,
      "81": 1350,
      "??@?????@": 1351,
      "<?@<": 1352,
      "@@??>": 1353,
      "???????????????????>?@": 1354,
      "??@??@??": 1355,
      "@@=>": 1356,
      "????????????????????????>?": 1357,
      "?????????????@??@": 1358,
      "62": 1359,
      "@>=>": 1360,
      "?>?@>?@": 1361,
      "???????????????????????????????????????????????>???????????????????????????????????????????????>???????????????????????????????????????????????>???????????????????????????????????????????????>": 1362,
      "<?=": 1363,
      "DAA": 1364,
      "?????????????????????????>=": 1365,
      "NC": 1366,
      "@>>@?>": 1367,
      "???>?????>": 1368,
      "??????????@>": 1369,
      "JJ": 1370,
      "???>>?>": 1371,
      "@>>@>": 1372,
      "??=>?=": 1373,
      "@>>??>": 1374,
      "LH": 1375,
      "??>?@>??>??>": 1376,
      "@<=@": 1377,
      "??????????>>": 1378,
      "??????????????????????????????????????????????????@": 1379,
      "??????????????????????????????????????????????????????": 1380,
      "????????????????????????????????>?@": 1381,
      "AM": 1382,
      "@@??": 1383,
      "????????????????????????>=": 1384,
      "@@>=": 1385,
      "?????????????????????????@??@": 1386,
      "???????????????????????????????????>??>??>??>??>": 1387,
      "=?<": 1388,
      "=>=<": 1389,
      "?>>@>": 1390,
      "??>?@>??>": 1391,
      "><<": 1392,
      "????>?????>": 1393,
      "@?@@?@@?@@?@@": 1394,
      "?=>?=>?=": 1395,
      "CAB": 1396,
      "IK": 1397,
      "17": 1398,
      "????????????????????????????????????????????????????????????????????????????????????????????????????????????????????????????????????????????????????????????????????????????????????????????????????????????????????????????????????????????????????????????????????????????????????????????????????????????????????????????????????????????????????????????????": 1399,
      ">@@>@@>": 1400,
      "@?>@?=": 1401,
      "?????????????>??>": 1402,
      "ND": 1403,
      "???????????????????????????????????>?@": 1404,
      "?>@@?@": 1405,
      "??@=": 1406,
      "??<?@": 1407,
      "MG": 1408,
      "DBB": 1409,
      "FL": 1410,
      "25": 1411,
      "NE": 1412,
      "??>>?>>?>": 1413,
      "?????????????????????????????????????????????????@": 1414,
      ">@@?": 1415,
      "43": 1416,
      "??????????????????????????????????@?>": 1417,
      "????>=": 1418,
      ">@@>>": 1419,
      "90": 1420,
      "?????>?>": 1421,
      ">@???@": 1422,
      "?>?@>>": 1423,
      "<=>": 1424,
      "@;>": 1425,
      "???????????????????????????????????????????????????????????????????????????????????????????>": 1426,
      "??????????????????????????>??>": 1427,
      ";;@": 1428,
      "CM": 1429,
      "OA": 1430,
      "??????=": 1431,
      ">???": 1432,
      "@???????@": 1433,
      "ADA": 1434,
      "?>>?=>": 1435,
      "??????????????": 1436,
      "@???????????????????????????": 1437,
      "?/": 1438,
      "????>???@": 1439,
      "??????>??>??>??>": 1440,
      "09": 1441,
      "??????>?>": 1442,
      "@?=@?=@?=": 1443,
      "??????????????????????????????????????????????????>": 1444,
      "???>>?@": 1445,
      "EBA": 1446,
      "34": 1447,
      "?????????????????????????????????????????????>?@?????????????????????????????????????????????>?@": 1448,
      ">?@>?@??@": 1449,
      "@>=@>=@": 1450,
      "=>@>": 1451,
      "CCB": 1452,
      "@????????????????????????@": 1453,
      "??=?>=": 1454,
      "???>>>": 1455,
      "52": 1456,
      "71": 1457,
      "<>=": 1458,
      "???@@?@": 1459,
      ">>=>>": 1460,
      "GL": 1461,
      "<@?": 1462,
      "<>?<": 1463,
      ">?????????????????????????@": 1464,
      "????>??@": 1465,
      "??????>@": 1466,
      "NF": 1467,
      "?>@??": 1468,
      "????>?@?@": 1469,
      "?????@??@??@??@??@": 1470,
      "???????????????????????????????????????????????????????????????": 1471,
      "=?????????????????????????": 1472,
      "HL": 1473,
      "=@@>": 1474,
      "=><=><": 1475,
      "=?@>?@": 1476,
      "DM": 1477,
      "<=@<=@": 1478,
      "@/": 1479,
      "@;@": 1480,
      "?;?": 1481,
      "??????@??@??@??@": 1482,
      "JK": 1483,
      "<><<": 1484,
      "@;?": 1485,
      "??>???@": 1486,
      ";>:": 1487,
      ">/": 1488,
      "?????????????????????????@?>": 1489,
      ">?>??>": 1490,
      "BAC": 1491,
      "?@@??@??@??@": 1492,
      "EM": 1493,
      "~>": 1494,
      "@?>>@": 1495,
      "@@:": 1496,
      "@=?>": 1497,
      "@????@": 1498,
      ";?:": 1499,
      "@?>??@": 1500,
      "BN": 1501,
      "=/": 1502,
      "?@??@??@": 1503,
      ">?>?@": 1504,
      "???>=": 1505,
      "<<:": 1506,
      "???>>@": 1507,
      "@?>@>": 1508,
      "33": 1509,
      "????????????????????????????????????????????????????????????????????????????????????????????????????????????????????????????????????????????????????????????????????????????????????????????????????????????????????????????????????????????????????????????????????????????????????????????????????????????????????????????????????????????????????????????????????????????????????????????????????????????????????????????????????????????????????????????????????????????????????????????????????????????????????????????????????????????????????????????????????????????????????????????????????????????????????????????????????????????????????????????????????????????????????????????????????????????????????????????????????????????????????????????????????????????????????????????????????????????????????????????????????????????????????????????????????????????????????????????????????????????????????????????????????????????????????????????????????????????????????????????????????????????????????????????????????????????????????????????????????????????????????????????????????????????????????????????????????????????????????????????????????????????????????????????????????????????????????????????????????????????????????????????????????????????????????????????????????????????????????????????????": 1510,
      "42": 1511,
      "61": 1512,
      "@>?@@": 1513,
      "@?@>>": 1514,
      "??>?@>?@>": 1515,
      "15": 1516,
      "LI": 1517,
      "?@=>": 1518,
      "?@;": 1519,
      "?????????>??>??>": 1520,
      "08": 1521,
      "@=>>": 1522,
      "?????@@>": 1523,
      "???=?": 1524,
      "@?>@?>@??@": 1525,
      "????????????????????????????>???>": 1526,
      "EAA": 1527,
      "=>@=>@=>": 1528,
      "???????????????????????????>?@": 1529,
      "????????????????????????????????????????????????????????????????????????????????????????????????????????????????????????????????????????????????????????????????????????????????????????????????????????????????????????????????????????????????????????????????????????????????????????????????????????????????????????????????????????????????????????????????????????????????????????????????????????????????????????????????????????????????????????????????????????????????????????????????????????????????????????????????????????????????????????????????????????????????????????????????????????????????????????????????????????????????????????????????????????????????????????????????????????????????????????????????????????????????????????????????????????????????????????????????????????????????????????????????????????????????????????????????????????????????????????????????????????????????????????????????????????????????????????????????????????????????????????????????????????????????????????????????????????????????????????????????????????????????????????????????????????????????????????????????????????????????????????????????????????????????????????????????????????????????????????????????????????????????????????????????": 1530,
      "@@?=": 1531,
      "@>>?>": 1532,
      "??;??;": 1533,
      "??@??@?>": 1534,
      ";=:": 1535,
      "??>>?>??>??>": 1536,
      "16": 1537,
      "???????????????????????????????????????????>???>???????????????????????????????????????????>???>": 1538,
      "?????????????????????????????????????????????????>": 1539,
      "=@?=@?=": 1540,
      "GM": 1541,
      "????????@?@": 1542,
      "???@@>": 1543,
      ">>>?>>": 1544,
      ">?@?": 1545,
      ">?@>@": 1546,
      "@>=@>": 1547,
      "AN": 1548,
      "???????????????????????????????????@??@??@??@??@": 1549,
      ">?@>@@": 1550,
      "?=>@=>": 1551,
      "OB": 1552,
      "?????????>@": 1553,
      "?@@@@@": 1554,
      "=?@=>": 1555,
      "?=??": 1556,
      "@>>?>>": 1557,
      "?????>???>": 1558,
      "??????????????????????": 1559,
      "?????????????????????????????????????????????@?>?????????????????????????????????????????????@?>": 1560,
      ">??>??>": 1561,
      "????=?": 1562,
      "80": 1563,
      "@>=?>=": 1564,
      "FM": 1565,
      "=?@>?@>": 1566,
      "OC": 1567,
      ";/": 1568,
      "KJ": 1569,
      "???????????????????": 1570,
      "????????????????????????>>>": 1571,
      ">=@>": 1572,
      "==@@": 1573,
      ">>@??@": 1574,
      "????????????????????????????????@?>": 1575,
      "?@???>": 1576,
      "@;:": 1577,
      "?;=": 1578,
      "?>>?>>??>??>": 1579,
      "IL": 1580,
      "????@??>": 1581,
      "@;=": 1582,
      "BCB": 1583,
      "@@>??>": 1584,
      "><=": 1585,
      "BO": 1586,
      "@??????????????????????????>": 1587,
      "?;@": 1588,
      "07": 1589,
      "???????????????????????????????????????????": 1590,
      "@???????>": 1591,
      "????????????????????????=>": 1592,
      "@>?@>?@>?@": 1593,
      "?????????@??@??@": 1594,
      "?????????????????????????????????>?@": 1595,
      "??????????????????????????@?@": 1596,
      "???>???@": 1597,
      "?????@???@": 1598,
      ">>??": 1599,
      "?????????>>": 1600,
      "??????????????>??>": 1601,
      "?????????????????????????????????????????": 1602,
      "@??=": 1603,
      "@?>???@": 1604,
      "</": 1605,
      "MH": 1606,
      "?=>?@": 1607,
      "?>@??@??@??@": 1608,
      "???????????@?>": 1609,
      "?>@?>@??@": 1610,
      ">=<>=<": 1611,
      "??????????????????????????????@?>": 1612,
      "@?>@?@": 1613,
      "==?@": 1614,
      ">@@>@@>@@": 1615,
      "OD": 1616,
      ">>@=>": 1617,
      "NG": 1618,
      "ACC": 1619,
      "51": 1620,
      "@=<@=<": 1621,
      "?>=?>=?>=?>=": 1622,
      "24": 1623,
      "?????????????????@??@": 1624,
      "@?>>?>": 1625,
      "BBC": 1626,
      "@@=@": 1627,
      "?>>@?@": 1628,
      "<>?": 1629,
      "ACD": 1630,
      "????????????????????????@?": 1631,
      "?;<": 1632,
      "????>>@?>": 1633,
      "?>??>?@": 1634,
      "?????????????????????????????????????????????????": 1635,
      "=?;=": 1636,
      "<:@": 1637,
      "=@?@": 1638,
      "CN": 1639,
      "?????????????????>?@": 1640,
      "@@@?": 1641,
      ">????????????????????????>": 1642,
      "??????@?>??>??>??>??>": 1643,
      ";?>": 1644,
      "70": 1645,
      ";>>": 1646,
      "KK": 1647,
      "MI": 1648,
      "?>??=": 1649,
      "@>?@?@": 1650,
      "ABE": 1651,
      "????@@>?@": 1652,
      "?>??>??>??>": 1653,
      "=??>??>": 1654,
      "DCB": 1655,
      "@?@@?@@??@": 1656,
      "@@@??@": 1657,
      ">>=?>=": 1658,
      "??>?????>": 1659,
      "@?@@?@??@??@": 1660,
      "<@=": 1661,
      "@@?@@": 1662,
      "?????@@": 1663,
      "?=>?>>?>>": 1664,
      "??@?@@?@": 1665,
      "/>": 1666,
      "06": 1667,
      "?????????????????????????????>??>": 1668,
      "@>????????????????????????": 1669,
      "???@?>?@": 1670,
      "DN": 1671,
      "@>?@>?@>": 1672,
      "=~": 1673,
      ":;@": 1674,
      "?.": 1675,
      "OE": 1676,
      "41": 1677,
      "??>?@?@": 1678,
      "=<<": 1679,
      "@?@@@@@": 1680,
      "???????????????????????????????????????????????????????????????????????????????????????????????????????????????????????????????????????????????????????????????????????????????????????????????@": 1681,
      "???>?>>": 1682,
      "/:": 1683,
      "??????????????@??@": 1684,
      "???????????????????????????????????????????>?@": 1685,
      "??>??>>?>??>": 1686,
      "<>@<>": 1687,
      "/@": 1688,
      "?>????": 1689,
      "PA": 1690,
      ">>>>>=": 1691,
      "LJ": 1692,
      "PB": 1693,
      "?>?????@": 1694,
      "??>??>?????>": 1695,
      "??=@?>": 1696,
      "??????????>@": 1697,
      "??<@": 1698,
      "???>????>": 1699,
      "23": 1700,
      "????>>??>": 1701,
      "?>>??@": 1702,
      "@>@?@": 1703,
      "@>>?": 1704,
      "=<>": 1705,
      "????<": 1706,
      "EN": 1707,
      "???=?@": 1708,
      "=>==>==": 1709,
      "????@??": 1710,
      "???????@@": 1711,
      "<@@<": 1712,
      "@><@": 1713,
      "?????????????????????????????????????????>??>??>": 1714,
      "?????????????????>??>": 1715,
      "=@;": 1716,
      "?@>??@": 1717,
      "/=": 1718,
      "05": 1719,
      "@.": 1720,
      "JL": 1721,
      "@????@??@": 1722,
      ">@??": 1723,
      "/?": 1724,
      "/<": 1725,
      "ECA": 1726,
      ">@;": 1727,
      "??>>>": 1728,
      ">?@??@??@??@??@": 1729,
      ">@????????????????????????": 1730,
      "OF": 1731,
      "32": 1732,
      "?==>": 1733,
      "???=@": 1734,
      "@@>?": 1735,
      "=@==@==": 1736,
      "??>?@>>": 1737,
      "????????????????????????????????????????????????????": 1738,
      "60": 1739,
      "HM": 1740,
      ">@???>": 1741,
      "??????????????????????????????????????????????????????????????????????????????????????????????>": 1742,
      "/;": 1743,
      "????????????????????????????????????????????????????????????????????????????????????????????>": 1744,
      "BP": 1745,
      "@?>??>??>??>": 1746,
      "?????>@@": 1747,
      "?==?>=": 1748,
      "@>@@>@@>": 1749,
      "LK": 1750,
      ">=?>": 1751,
      "????????????????????@?>": 1752,
      "?????????????????????????>?": 1753,
      "?=?=": 1754,
      "????????@?????@": 1755,
      ".<": 1756,
      "?????????????????@?>": 1757,
      "@?>@@>": 1758,
      "????@@??@": 1759,
      "?????????????????????????>?>": 1760,
      ";<;": 1761,
      "AABA": 1762,
      "?????????????????????????@?@": 1763,
      "=?>=": 1764,
      ">?@@>": 1765,
      "@?>@?>@?>@?>@": 1766,
      "??>??": 1767,
      "?>>?>>?>>??>": 1768,
      "@@=@@": 1769,
      "????????????????????????????????????????????????????????????????????????????????????????????????????????????????????????????????????????????": 1770,
      "??????????????????????????????????????????????????": 1771,
      ";@>": 1772,
      ">.": 1773,
      "=?@=?": 1774,
      "?????????????????????>?@": 1775,
      "?>>?>>>": 1776,
      "???????????????????????????????????@??@": 1777,
      "???????????????????????????????????????????????????????????????????????????????????????????????????????????????????????????????????????????????????????????????????????????????????????????????>": 1778,
      "?>@?": 1779,
      "<=?": 1780,
      "OG": 1781,
      "=?>>": 1782,
      "@?@@?@@?@@?@@?@": 1783,
      "FN": 1784,
      "????????????????????????????????????????????????????????????????????????????????????????????????????????????????????????????????????????????????????????????????????????????????????????????????????????????????????????????????????????????????????????????????????????????????????????????????????????????????????????????????????????????????????????????????????????????????????????????????????????????????????????????????????????????????????????????????????????????????????????????????????????????????????????????????????????????????????????????????????????????????????????????????????????????????????????????????????????????????????????????????????????????????????????????????????????????????????????????????????????????????": 1785,
      ">>@>>@>": 1786,
      "MJ": 1787,
      "??@?>?@": 1788,
      ".=": 1789,
      "KL": 1790,
      "????@?????@??@": 1791,
      "???@???>": 1792,
      "??@??@@?@??@": 1793,
      "PC": 1794,
      "14": 1795,
      ":/": 1796,
      "?????????????????????????????????????": 1797,
      "<?<": 1798,
      "??????????????????????????>????????>": 1799,
      ">?@>?@>??>": 1800,
      "AO": 1801,
      "????????????????????????????????????????????????????????????????????????????????????????????????????????????????????????????????????????????????????????????????????????????????????????????????????????????????????????????????????????????????????????????????????????????????????????????????????????????????????????????????????????????????????????????????????????????????????????????????????????????????????????????????????????????????????????????????????????????????????????????????????????????????????????????????????????????????????????????????????????????????????????????????????????????????????????????????????????????????": 1802,
      ">@@?@@?@": 1803,
      "??@??@????????????????????????????": 1804,
      "@?>@????????????????????????": 1805,
      ">@@@": 1806,
      "<<<": 1807,
      "31": 1808,
      "??????????????>?@": 1809,
      "22": 1810,
      "??????>?????>": 1811,
      "????????????????????>?@": 1812,
      "??????????????@?>": 1813,
      "?>@?>??>": 1814,
      "GN": 1815,
      ";.": 1816,
      "?>>>>": 1817,
      "?>?@??>": 1818,
      "???@@?>": 1819,
      "?>??>???>": 1820,
      "?????????????????????": 1821,
      "=.": 1822,
      "CO": 1823,
      "???????@?@": 1824,
      "PD": 1825,
      "?>;?>;": 1826,
      "?<<?<<": 1827,
      "?@????????????????????????": 1828,
      "??@?@@??@": 1829,
      "PE": 1830,
      "<?~": 1831,
      "IM": 1832,
      "????????????????????????>??@": 1833,
      "??????????????????????????????????????????????????????????????????????????????????????????????@": 1834,
      "NH": 1835,
      "?@?@?@": 1836,
      "QA": 1837,
      "????????????????????????????@>>": 1838,
      "<.": 1839,
      "????????????????????@@": 1840,
      ">;:": 1841,
      "???????@?>": 1842,
      ">=@>=": 1843,
      "???@??": 1844,
      "???>?@>": 1845,
      "?@?>??>??>??>??>": 1846,
      "=<?": 1847,
      "???@@@": 1848,
      "@?=?@": 1849,
      "??=>?=>": 1850,
      "??=?>": 1851,
      ";<:": 1852,
      ">>@@>": 1853,
      ":.": 1854,
      "@?@=": 1855,
      "?????????????????????????????????????????>?@": 1856,
      "??>>@?>": 1857,
      "??????>??@": 1858,
      "?>??>>?>>": 1859,
      "?????????>?>": 1860,
      "?>???>??>": 1861,
      "@;<": 1862,
      "????????????????@@": 1863,
      "??????????????????????????????@??@": 1864,
      "????????????????????????????@@>": 1865,
      "?>>?>>>>>": 1866,
      "ACE": 1867,
      ".>": 1868,
      "50": 1869,
      "????>?????>??>": 1870,
      "@?@@?@@?@??@": 1871,
      "HN": 1872,
      "???>?@??@": 1873,
      "<@;": 1874,
      "=?@>>": 1875,
      "?<??<": 1876,
      "????????>?????>": 1877,
      ">?>??>??>": 1878,
      "?=??>??>": 1879,
      "@?=?": 1880,
      "@>?>>": 1881,
      ">;@": 1882,
      "?>=?@": 1883,
      "?????@>>": 1884,
      "???????????????????@?>": 1885,
      "@?=>": 1886,
      "@>@>>": 1887,
      "?=>=": 1888,
      "????????????????????????????????????????????????????????????????????????????????????????????????????????????????????????????????????????????????????????????????????????????????????????????????????????????????????????????????????????????????????????????????????????????????????????????????????????????????????????????????????????????????": 1889,
      "?=@?=@?=": 1890,
      ">@@>@@>@": 1891,
      "?@>?>": 1892,
      "??@?>@?>": 1893,
      "?????????????????????????@?": 1894,
      "@?@@??@??@": 1895,
      "JM": 1896,
      "????@=": 1897,
      "????????????????????????@=": 1898,
      "?????????????????????????????>??@": 1899,
      "????=@": 1900,
      "??@?>@??@": 1901,
      "??????????????????????????????????????>?@": 1902,
      "?<=?<": 1903,
      "??????????????????????????>?????@": 1904,
      "<==": 1905,
      "NI": 1906,
      ">>>>=": 1907,
      "@?>>?>>?>>?>>?>>": 1908,
      "@-": 1909,
      ".:": 1910,
      "?????????????????????????????????????????@??@": 1911,
      "??????@?????@": 1912,
      "?-": 1913,
      ">>????????????????????????": 1914,
      ">=@?@": 1915,
      "13": 1916,
      "?@?>?>": 1917,
      ";?@;?@": 1918,
      "?????>?": 1919,
      "=<=": 1920,
      "PF": 1921,
      "?@:": 1922,
      "??@@??@": 1923,
      "???@?@@?@": 1924,
      "EBB": 1925,
      "???????@?????@": 1926,
      "04": 1927,
      "BDA": 1928,
      "=;:": 1929,
      "@}": 1930,
      "????????????????????????????????@@": 1931,
      "??>??=": 1932,
      "?????????????????????????>??>": 1933,
      ".?": 1934,
      "=-": 1935,
      "QB": 1936,
      "??@??@??@??@??@??????????????????????????@": 1937,
      ";>@;>@": 1938,
      "?=@?@": 1939,
      "?????????????????????????????????????????@??@??@": 1940,
      "DO": 1941,
      "21": 1942,
      "????????????????????????????????????????????>??@": 1943,
      "=?@=?@=": 1944,
      "FBA": 1945,
      "??????@??>": 1946,
      "CP": 1947,
      "?>>@>>@>>": 1948,
      "????????????????????????????????????????????@??>": 1949,
      "????????????????????????????????????????????????????????????????????????????????????????????@": 1950,
      "@?=@": 1951,
      "?<@?<": 1952,
      "?@@??>": 1953,
      "??????????????????????????@????????@??@??@??@??@??????????????????????????@????????@??@??@??@??@": 1954,
      ";??": 1955,
      "ADB": 1956,
      "MK": 1957,
      "????????????????????????????>?>": 1958,
      "?>??>?????>??>": 1959,
      ".;": 1960,
      "??@????": 1961,
      "???????????????????????????????????@?>": 1962,
      "<<>": 1963,
      "EO": 1964,
      "LL": 1965,
      ".@": 1966,
      ">-": 1967,
      "QC": 1968,
      "???????????????????????????????????>??>": 1969,
      ">>;>>;": 1970,
      "????????????????????????><": 1971,
      ";@?": 1972,
      "=>@=?@": 1973,
      ":-": 1974,
      "DDA": 1975,
      "????>?": 1976,
      "?>>?>>?>??>": 1977,
      ">@@>?": 1978,
      "????@?>?>": 1979,
      "40": 1980,
      "@>>=": 1981,
      "@>@@?@@?@": 1982,
      "FAA": 1983,
      "@@@@?": 1984,
      "??????????????????????????????????????????????????????????????????????????????????????????@": 1985,
      ";-": 1986,
      "=???": 1987,
      "BQ": 1988,
      "@?>???>": 1989,
      "??>?@>?@>?@": 1990,
      "????????@??@??@??@": 1991,
      ">>@?": 1992,
      ">?@??@??@??@": 1993,
      "OH": 1994,
      ">?????????????????????????@>": 1995,
      "??>>?>>?>>?>>": 1996,
      "@;;": 1997,
      "????????????????????@??@": 1998,
      "@?;@?;": 1999,
      "????????????????????????????????????????????????????????>": 2000,
      "?>??>?????>": 2001,
      "??????????????????????????????????????????????@@": 2002,
      "@@>@?>@?>": 2003,
      "@??@??@??@": 2004,
      "?>@=": 2005,
      "12": 2006,
      "?????????????????????????>??@": 2007,
      "LM": 2008,
      "?=>?=>?=>?=>": 2009,
      "@@????????????????????????": 2010,
      "NJ": 2011,
      "??>@>>": 2012,
      "??@>?": 2013,
      "????????????????????????????>@@": 2014,
      "@@@@@@@@@@@@": 2015,
      ";?=": 2016,
      "?>???": 2017,
      "?>=??=": 2018,
      ">>???>": 2019,
      "???@=": 2020,
      "???????????????????????????????????????????????>???????????????????????????????????????????????>???????????????????????????????????????????????>": 2021,
      "???????????????????????????????????????????@>?@@": 2022,
      ":?~": 2023,
      "IN": 2024,
      "@>@?>@?>": 2025,
      "?????????????????????????=>": 2026,
      "???@????@": 2027,
      "BCD": 2028,
      "@?@@?@@?": 2029,
      "???????????????????????????????????????????????@???????????????????????????????????????????????@???????????????????????????????????????????????@": 2030,
      "<?????????????????????????": 2031,
      ";>?": 2032,
      "=@:": 2033,
      "?==?=>": 2034,
      "<-": 2035,
      "?>>?@>": 2036,
      ">=>>": 2037,
      "?>@???????>": 2038,
      "@::": 2039,
      "@>?@>?@>?@>?@>": 2040,
      "@@@@?@@?@": 2041,
      "????@>??>": 2042,
      "?>?>?@": 2043,
      "??>>?>>?>>?>>?>>": 2044,
      "->": 2045,
      "KM": 2046,
      "?@>?": 2047
    },
    "merges": [
      [
        "?",
        "?"
      ],
      [
        "??",
        "??"
      ],
      [
        "????",
        "????"
      ],
      [
        "????????",
        "????????"
      ],
      [
        "????????????????",
        "????????????????"
      ],
      [
        "?",
        "@"
      ],
      [
        "?",
        ">"
      ],
      [
        "????????????????????????????????",
        "????????????????????????????????"
      ],
      [
        "??",
        ">"
      ],
      [
        "??",
        "@"
      ],
      [
        "????????????????????????????????????????????????????????????????",
        "????????????????????????????????????????????????????????????????"
      ],
      [
        "@",
        "@"
      ],
      [
        ">",
        ">"
      ],
      [
        "????????????????",
        "????????"
      ],
      [
        "@",
        ">"
      ],
      [
        "?",
        "="
      ],
      [
        "??",
        "?@"
      ],
      [
        "??",
        "?>"
      ],
      [
        "@",
        "?>"
      ],
      [
        "??>",
        "??>"
      ],
      [
        "??@",
        "??@"
      ],
      [
        "????????????????????????????????????????????????????????????????????????????????????????????????????????????????????????????????",
        "????????????????????????????????????????????????????????????????????????????????????????????????????????????????????????????????"
      ],
      [
        "?>",
        ">"
      ],
      [
        "@",
        "?@"
      ],
      [
        ">",
        "?@"
      ],
      [
        "=",
        ">"
      ],
      [
        "????????",
        "????"
      ],
      [
        "A",
        "A"
      ],
      [
        ">",
        "@"
      ],
      [
        "????????????????????????",
        "????"
      ],
      [
        "=",
        "@"
      ],
      [
        "@",
        "?"
      ],
      [
        "?",
        "<"
      ],
      [
        "@",
        "="
      ],
      [
        "@",
        ">>"
      ],
      [
        "????",
        "?@"
      ],
      [
        "B",
        "A"
      ],
      [
        "????",
        "?>"
      ],
      [
        "????????????????????????????????????????????????????????????????????????????????????????????????????????????????????????????????????????????????????????????????????????????????????????????????????????????????????????????????????????????????????????????????",
        "????????????????????????????????????????????????????????????????????????????????????????????????????????????????????????????????????????????????????????????????????????????????????????????????????????????????????????????????????????????????????????????????"
      ],
      [
        "????????????????????????????????",
        "????????????"
      ],
      [
        ">",
        "="
      ],
      [
        ">",
        "@@"
      ],
      [
        ">",
        "?"
      ],
      [
        "=",
        "="
      ],
      [
        "??",
        "="
      ],
      [
        "@",
        "??@"
      ],
      [
        "A",
        "B"
      ],
      [
        "????",
        ">"
      ],
      [
        "??",
        "?"
      ],
      [
        "?>>",
        "?>>"
      ],
      [
        "@",
        "<"
      ],
      [
        "????????????????????????????????",
        "????????"
      ],
      [
        "=",
        "?"
      ],
      [
        "<",
        ">"
      ],
      [
        "?>",
        "?@"
      ],
      [
        "@?@",
        "@?@"
      ],
      [
        "@?>",
        "@?>"
      ],
      [
        "B",
        "B"
      ],
      [
        "?=",
        ">"
      ],
      [
        "??>",
        "?@"
      ],
      [
        "????",
        "@"
      ],
      [
        "??>",
        ">"
      ],
      [
        "????",
        "???@"
      ],
      [
        "<",
        "@"
      ],
      [
        "????",
        "???>"
      ],
      [
        "C",
        "A"
      ],
      [
        "?>",
        "="
      ],
      [
        "????",
        "??@"
      ],
      [
        "<",
        "="
      ],
      [
        "@>",
        "?@"
      ],
      [
        "=",
        "?@"
      ],
      [
        ">?@",
        ">?@"
      ],
      [
        ">",
        "<"
      ],
      [
        ";",
        "@"
      ],
      [
        "<",
        "?"
      ],
      [
        "@",
        "????????????????????????"
      ],
      [
        "??>??>",
        "??>??>"
      ],
      [
        "@@",
        "@@"
      ],
      [
        ">>",
        ">>"
      ],
      [
        "=",
        "<"
      ],
      [
        "A",
        "C"
      ],
      [
        "????????",
        ">"
      ],
      [
        "?>",
        "??>"
      ],
      [
        "??@??@",
        "??@??@"
      ],
      [
        "@",
        "?="
      ],
      [
        "????",
        "??>"
      ],
      [
        "@@",
        ">"
      ],
      [
        "?",
        ";"
      ],
      [
        "C",
        "B"
      ],
      [
        ";",
        ">"
      ],
      [
        "?>",
        "@"
      ],
      [
        "<",
        "<"
      ],
      [
        "?@",
        ">"
      ],
      [
        "@",
        ";"
      ],
      [
        "@@",
        "?@"
      ],
      [
        "B",
        "C"
      ],
      [
        "??@??@",
        "??@"
      ],
      [
        "D",
        "A"
      ],
      [
        "????????",
        "@"
      ],
      [
        "@>",
        "="
      ],
      [
        "?@",
        "?>"
      ],
      [
        "@",
        ":"
      ],
      [
        "@",
        "=>"
      ],
      [
        ">",
        "?>"
      ],
      [
        "??>??>",
        "??>"
      ],
      [
        ";",
        "="
      ],
      [
        "?@",
        "??@"
      ],
      [
        "????????????????????????????????",
        "????????????????"
      ],
      [
        "?@",
        "@"
      ],
      [
        ";",
        "?"
      ],
      [
        "????????????????????????",
        "??>"
      ],
      [
        ">",
        "??>"
      ],
      [
        "????????????????????????",
        "??@"
      ],
      [
        "=",
        "@@"
      ],
      [
        "????????????????????????????????????????????",
        "???@"
      ],
      [
        ">",
        ";"
      ],
      [
        ">>",
        "="
      ],
      [
        "????????????????????????????????????????????",
        "???>"
      ],
      [
        "C",
        "C"
      ],
      [
        "F",
        "A"
      ],
      [
        "?@",
        "@?@"
      ],
      [
        "D",
        "B"
      ],
      [
        "?=",
        "="
      ],
      [
        "?",
        ":"
      ],
      [
        "??",
        "<"
      ],
      [
        ">?@",
        ">"
      ],
      [
        ";",
        "<"
      ],
      [
        "A",
        "D"
      ],
      [
        "??@",
        "?>"
      ],
      [
        "=",
        ";"
      ],
      [
        "?>>",
        "?>"
      ],
      [
        "@>>",
        "@>>"
      ],
      [
        "??",
        "?="
      ],
      [
        "????????????????????????????????????????????????????????????????????????????????????????????????????????????????????????????????????????????????????????????????????????????????????????????????????????????????????????????????????????????????????????????????????????????????????????????????????????????????????????????????????????????????????????????????????????????????????????????????????????????????????????????????????????????????????????????????????????????????????????????????????????????????????????????????",
        "????????????????????????????????????????????????????????????????????????????????????????????????????????????????????????????????????????????????????????????????????????????????????????????????????????????????????????????????????????????????????????????????????????????????????????????????????????????????????????????????????????????????????????????????????????????????????????????????????????????????????????????????????????????????????????????????????????????????????????????????????????????????????????????????"
      ],
      [
        "@?>",
        "@"
      ],
      [
        ">>",
        ">"
      ],
      [
        "????????????????????????",
        "?@"
      ],
      [
        "????????",
        "???>"
      ],
      [
        "????????",
        "???@"
      ],
      [
        "?>",
        "?>"
      ],
      [
        "@>",
        "@@"
      ],
      [
        "????????",
        "?@"
      ],
      [
        "????????????????????????????????????????????????????????????????",
        "????????????????"
      ],
      [
        "B",
        "D"
      ],
      [
        "<",
        ":"
      ],
      [
        "????????",
        "??@"
      ],
      [
        "E",
        "A"
      ],
      [
        "<",
        ";"
      ],
      [
        ">@@",
        ">@@"
      ],
      [
        "????????????????????????",
        "???@"
      ],
      [
        ">>",
        "@"
      ],
      [
        ">",
        ":"
      ],
      [
        "??=",
        "??="
      ],
      [
        "????????????????????????????????????????????????????????????????????????????????????????????????????????????????????????????????????????????????????????????????????????????????????????????????????????????????????????????????????????????????????????????????????????????????????????????????????????????????????????????????????????????????????????????????????????????????????????????????????????????????????????????????????????????????????????????????????????????????????????????????????????????????????????????????",
        "????????????????????????????????????????????????????????????????????????????????????????????????????????????????????????????????????????????????????????????????????????????????????????????????????????????????????????????????????????????????????????????????"
      ],
      [
        "????????",
        "?>"
      ],
      [
        "?@",
        "?@"
      ],
      [
        "????????",
        "??>"
      ],
      [
        "=",
        ":"
      ],
      [
        "D",
        "C"
      ],
      [
        ";",
        ";"
      ],
      [
        "???@",
        "??@"
      ],
      [
        "????????????????????????????????????????????????????????????????????????????????????????????????????????????????????????????????",
        "????????????????????????????????????????????????????????????????"
      ],
      [
        "????",
        ">?@"
      ],
      [
        "????????????????????????",
        ">"
      ],
      [
        ":",
        ">"
      ],
      [
        ":",
        "@"
      ],
      [
        "????????????????????????",
        "?>"
      ],
      [
        "E",
        "B"
      ],
      [
        "????",
        "@?>"
      ],
      [
        "???>",
        "?@"
      ],
      [
        "????",
        ">>"
      ],
      [
        "?????@",
        "??@"
      ],
      [
        "C",
        "D"
      ],
      [
        "???>",
        ">"
      ],
      [
        "?>",
        "<"
      ],
      [
        "???>",
        "??>"
      ],
      [
        ":",
        "?"
      ],
      [
        "@>",
        "@"
      ],
      [
        "?>",
        "@@"
      ],
      [
        "?????>",
        "??>"
      ],
      [
        ":",
        "="
      ],
      [
        "<",
        "?@"
      ],
      [
        "?>",
        "@?>"
      ],
      [
        "??",
        "=>"
      ],
      [
        "??@",
        ">"
      ],
      [
        "????????????????????????????",
        "???@"
      ],
      [
        "A",
        "E"
      ],
      [
        "?<",
        ">"
      ],
      [
        ";@",
        "~"
      ],
      [
        "@",
        "???@"
      ],
      [
        "?=>",
        "?=>"
      ],
      [
        "????????????????????????",
        "???>"
      ],
      [
        "G",
        "A"
      ],
      [
        "????????????????????????????",
        "?@"
      ],
      [
        "??@",
        "?@"
      ],
      [
        "@",
        "??>"
      ],
      [
        ":",
        "<"
      ],
      [
        "????",
        "@@"
      ],
      [
        "B",
        "E"
      ],
      [
        "@>",
        "<"
      ],
      [
        "D",
        "D"
      ],
      [
        "????????????????????????????????",
        "????"
      ],
      [
        "F",
        "B"
      ],
      [
        "@?>",
        "??>"
      ],
      [
        "????????????????????????????????????????",
        "???@"
      ],
      [
        "<",
        ">@"
      ],
      [
        "E",
        "C"
      ],
      [
        ";",
        ":"
      ],
      [
        "????????????????????????",
        "?"
      ],
      [
        "=@",
        "?="
      ],
      [
        "????????????????????????????",
        "???>"
      ],
      [
        "@",
        "??"
      ],
      [
        "?>>",
        "??>"
      ],
      [
        "=@",
        "="
      ],
      [
        "?>",
        ">>"
      ],
      [
        "@?",
        "<"
      ],
      [
        "@",
        "????"
      ],
      [
        "=>",
        "="
      ],
      [
        "@?>",
        ">"
      ],
      [
        "????????????????",
        "????"
      ],
      [
        ">>",
        "<"
      ],
      [
        "????????????",
        "???@"
      ],
      [
        "?>=",
        "?>="
      ],
      [
        ">>",
        "@>>"
      ],
      [
        "@?@",
        "??@"
      ],
      [
        "@@",
        "@"
      ],
      [
        "?>",
        "??>??>"
      ],
      [
        "????????????????????????????????",
        "???@"
      ],
      [
        "C",
        "E"
      ],
      [
        ":",
        ";"
      ],
      [
        "?=",
        "<"
      ],
      [
        ">?@",
        "??@"
      ],
      [
        "@>",
        "?"
      ],
      [
        "????????????",
        "?@"
      ],
      [
        "????????????",
        "???>"
      ],
      [
        ">@@",
        ">"
      ],
      [
        "?>>?>>",
        "?>>?>>"
      ],
      [
        ">>",
        "?@"
      ],
      [
        "<",
        "@@"
      ],
      [
        ">>",
        "@@"
      ],
      [
        "E",
        "D"
      ],
      [
        "G",
        "B"
      ],
      [
        "?<",
        "="
      ],
      [
        "????",
        "@??@"
      ],
      [
        "????>",
        "??>"
      ],
      [
        "????????????????????????",
        "@"
      ],
      [
        ":",
        ":"
      ],
      [
        "@?@",
        "@"
      ],
      [
        "F",
        "C"
      ],
      [
        "@?>",
        "?@"
      ],
      [
        "?>",
        "?"
      ],
      [
        "????????????????????????????????",
        "???>"
      ],
      [
        "?>",
        "??@"
      ],
      [
        "????????????????????????????????????????",
        "???>"
      ],
      [
        "A",
        "F"
      ],
      [
        "????",
        "??"
      ],
      [
        "????????????????????????????",
        "??>"
      ],
      [
        "@?>",
        "@@"
      ],
      [
        "????????????????????????????",
        "??@"
      ],
      [
        ">@",
        ">>"
      ],
      [
        "????????????????????????????",
        ">"
      ],
      [
        "D",
        "E"
      ],
      [
        "9",
        "9"
      ],
      [
        "????",
        "???"
      ],
      [
        "????????????????????????????????????????????????????????????????",
        "????????????????????????????????"
      ],
      [
        "?>",
        "???>"
      ],
      [
        "????????????????",
        "???@"
      ],
      [
        "????",
        "?"
      ],
      [
        "??",
        ";"
      ],
      [
        "????????????????????????????????",
        "?@"
      ],
      [
        "?????>",
        "?@"
      ],
      [
        "????????????",
        "??@"
      ],
      [
        "B",
        "F"
      ],
      [
        "????????????",
        ">"
      ],
      [
        "@@",
        "="
      ],
      [
        ">",
        "????????????????????????"
      ],
      [
        "@=",
        "?@"
      ],
      [
        "?=",
        "?@"
      ],
      [
        "??>",
        "@"
      ],
      [
        "????????????????",
        "??@"
      ],
      [
        "<",
        "=@"
      ],
      [
        "AA",
        "A"
      ],
      [
        "????????????????",
        "?@"
      ],
      [
        "=?@",
        "=?@"
      ],
      [
        "@?@@?@",
        "@?@@?@"
      ],
      [
        "@>",
        "=@"
      ],
      [
        "????????????",
        "?>"
      ],
      [
        "????????????",
        "??>"
      ],
      [
        "???@",
        "?@"
      ],
      [
        "E",
        "E"
      ],
      [
        "????????????????????????????",
        "?>"
      ],
      [
        "??@??@??@??@",
        "??@"
      ],
      [
        "??>??>??>??>",
        "??>"
      ],
      [
        "@?>@?>",
        "@?>@?>"
      ],
      [
        "????????????????????????",
        "??"
      ],
      [
        "C",
        "F"
      ],
      [
        "??@",
        "@"
      ],
      [
        "@>",
        "??>"
      ],
      [
        "=>",
        "<"
      ],
      [
        "????????????????????????",
        "?>>"
      ],
      [
        "@?=",
        "@?="
      ],
      [
        "@=",
        "="
      ],
      [
        ">>",
        "?>"
      ],
      [
        "F",
        "D"
      ],
      [
        "@=",
        "<"
      ],
      [
        "????????????????",
        "??>"
      ],
      [
        "?=",
        "@"
      ],
      [
        "?=",
        "?"
      ],
      [
        "????????????????????????",
        "???"
      ],
      [
        ";",
        "?@"
      ],
      [
        "G",
        "C"
      ],
      [
        "@>",
        "?>"
      ],
      [
        ">>",
        "=>"
      ],
      [
        "@",
        "??@??@"
      ],
      [
        "????????????????????????????????",
        "??@"
      ],
      [
        "9",
        "8"
      ],
      [
        ">",
        "??@"
      ],
      [
        "????????????????????????????????????????????????????????????????????????????????????????????????????????????????????????????????",
        "????????????????????????????????"
      ],
      [
        "???????????????????????????????????????????????@",
        "???????????????????????????????????????????????@"
      ],
      [
        "H",
        "A"
      ],
      [
        "????????????????",
        "???????@"
      ],
      [
        "????????",
        "@??@"
      ],
      [
        ">?@>?@",
        ">"
      ],
      [
        "????????????????",
        "???>"
      ],
      [
        "???????????????????????????????????????????????>",
        "???????????????????????????????????????????????>"
      ],
      [
        "?>>?>>",
        "?>>"
      ],
      [
        "D",
        "F"
      ],
      [
        "8",
        "9"
      ],
      [
        "@",
        "???>"
      ],
      [
        "????????????????",
        "???????>"
      ],
      [
        "????",
        "?>>"
      ],
      [
        "@?@@?@",
        "@?@"
      ],
      [
        "A",
        "G"
      ],
      [
        "????????>",
        "??>??>??>??>"
      ],
      [
        "?",
        "~"
      ],
      [
        "?>",
        "??>>"
      ],
      [
        "????????????????????????",
        "="
      ],
      [
        "????????????????????????????????????????",
        "??@"
      ],
      [
        "?>",
        "???@"
      ],
      [
        "AA",
        "B"
      ],
      [
        "????????????",
        "@"
      ],
      [
        "????????????????????????????????????????",
        "?@"
      ],
      [
        ";",
        ">@"
      ],
      [
        "H",
        "B"
      ],
      [
        "????????????????",
        "?????@"
      ],
      [
        "?=",
        ">@"
      ],
      [
        "??=",
        "?@"
      ],
      [
        "????????????????????????????????",
        "??>"
      ],
      [
        "F",
        "E"
      ],
      [
        "????????????????????????????????",
        "??????@"
      ],
      [
        "?>",
        ";"
      ],
      [
        "??>?@",
        ">"
      ],
      [
        "B",
        "G"
      ],
      [
        ">=",
        "<"
      ],
      [
        "@@",
        ">>"
      ],
      [
        "@",
        "=@"
      ],
      [
        "????????>",
        "??>"
      ],
      [
        "=>",
        "@=>"
      ],
      [
        ">?@",
        ">>"
      ],
      [
        "G",
        "D"
      ],
      [
        ">>>>",
        ">>>>"
      ],
      [
        "@>",
        ";"
      ],
      [
        "@=",
        "?"
      ],
      [
        "@@",
        "?"
      ],
      [
        "?<",
        "<"
      ],
      [
        "???@",
        "@"
      ],
      [
        "????????????????",
        ">"
      ],
      [
        "????????????????????????????????",
        ">"
      ],
      [
        "@@",
        ">@"
      ],
      [
        "?????>",
        "??>??>"
      ],
      [
        "????????????????",
        "????>"
      ],
      [
        "??@",
        "@?@"
      ],
      [
        "@?",
        ";"
      ],
      [
        "????????????????????????????????????????",
        "??>"
      ],
      [
        "?>>",
        "?@"
      ],
      [
        "?>",
        "@??@"
      ],
      [
        ">",
        "=@"
      ],
      [
        ">>=",
        ">>="
      ],
      [
        "8",
        "8"
      ],
      [
        "????",
        "??>?@"
      ],
      [
        "????????????????",
        "?>"
      ],
      [
        "????",
        ">@"
      ],
      [
        ">@@",
        "?@"
      ],
      [
        "@@@@",
        "@@@@"
      ],
      [
        "=",
        "=@"
      ],
      [
        "????????????????????????????????????????????????????????????????????????????????????????????????????????????????????????????????????????????????????????????????????????????????????????????????????????????????????????????????????????????????????????????????????????????????????????????????????????????????????????????????????????????????????????????????????????????????????????????????????????????????????????????????????????????????????????????????????????????????????????????????????????????????????????????????????????????????????????????????????????????????????????????????????????????????????????????????????????????????????????????????????????????????????????????????????????????????????????????????????????????????????????????????????????????????????????????????",
        "????????????????????????????????????????????????????????????????????????????????"
      ],
      [
        "C",
        "G"
      ],
      [
        "????????????????????????????????",
        "?>"
      ],
      [
        "9",
        "7"
      ],
      [
        "?????@",
        "??@??@"
      ],
      [
        "E",
        "F"
      ],
      [
        "??>??>",
        ">"
      ],
      [
        ">>",
        ";"
      ],
      [
        "@@",
        "?>"
      ],
      [
        "???@",
        "?>"
      ],
      [
        "???@",
        ">"
      ],
      [
        "????????????????????????????",
        "???"
      ],
      [
        "????????@",
        "??@??@??@??@"
      ],
      [
        "????",
        "@>"
      ],
      [
        ">>",
        "?"
      ],
      [
        "????????????????????????????",
        "@"
      ],
      [
        "????????????????????????????????????????????????????????????????????????????????????????????????????????????????????????????????????????????????????????????????????????????????????????????????????????????????????????????????????????????????????????????????????????????????????????????????????????????????????????????????????????????????????????????????????????????????????????????????????????????????????????????????????????????????????????????????????????????????????????????????????????????????????????????????????????????????????????????????????????????????????????????????????????????????????????????????????????????????????????????????????????????????????????????????????????????????????????????????????????????????????????????????????????????????????????????????????????????????????????????????????????????????????????????????????????????????????????????????????????????????????????????????????????????????????????????????????????????????????????????????????????????????????????????????????????????????????????????????",
        "????????????????????????????????????????????????????????????????????????????????????????????????????????????????????????????????????????????????????????????????????????????????????????????????????????????????????????????????????????????????????????????????????????????????????????????????????????????????????????????????????????????????????????????????????????????????????????????????????????????????????????????????????????????????????????????????????????????????????????????????????????????????????????????????????????????????????????????????????????????????????????????????????????????????????????????????????????????????????????????????????????????????????????????????????????????????????????????????????????????????????????????????????????????????????????????????????????????????????????????????????????????????????????????????????????????????"
      ],
      [
        "@????????????????????????",
        "?@"
      ],
      [
        "@>=",
        "@>="
      ],
      [
        "H",
        "C"
      ],
      [
        "7",
        "9"
      ],
      [
        ">>",
        "@>"
      ],
      [
        "@?@",
        "?@"
      ],
      [
        "??=",
        "??>"
      ],
      [
        "~",
        "="
      ],
      [
        "?=>",
        "?="
      ],
      [
        ">?",
        ";"
      ],
      [
        "????????????????",
        "??????@"
      ],
      [
        "??@",
        "??"
      ],
      [
        "????????????????????????????????",
        "???????@"
      ],
      [
        "????",
        "??@??@"
      ],
      [
        "?=",
        ";"
      ],
      [
        "????????????????????????????????????????????",
        ">"
      ],
      [
        ">?@",
        "@"
      ],
      [
        "????",
        "??>??>"
      ],
      [
        "????????????????????????????????",
        "?????@"
      ],
      [
        "?>>",
        "@"
      ],
      [
        "????????????",
        "???"
      ],
      [
        "????????????????",
        "????@"
      ],
      [
        "D",
        "G"
      ],
      [
        ">@@",
        ">@"
      ],
      [
        "@?>",
        "@??@"
      ],
      [
        "?>>",
        "@>>"
      ],
      [
        "????????????????????????????????",
        "@"
      ],
      [
        "=",
        "????????????????????????"
      ],
      [
        ">",
        "??"
      ],
      [
        "?=",
        "@@"
      ],
      [
        "=",
        "?>"
      ],
      [
        "F",
        "F"
      ],
      [
        "????????????????????????????????",
        "????>"
      ],
      [
        "????????????????????????????????",
        "???????>"
      ],
      [
        "A",
        "H"
      ],
      [
        "?==",
        "?=="
      ],
      [
        "=>",
        "=="
      ],
      [
        "G",
        "E"
      ],
      [
        "@>",
        "@@?@"
      ],
      [
        "@>?@",
        ">"
      ],
      [
        "I",
        "A"
      ],
      [
        "H",
        "D"
      ],
      [
        "?@",
        "@??@"
      ],
      [
        "=",
        ">>"
      ],
      [
        "????????????????????????????????",
        "??????>"
      ],
      [
        "??",
        "=@"
      ],
      [
        "@@",
        "??@"
      ],
      [
        "?>",
        "@?>@?>"
      ],
      [
        ";",
        "@@"
      ],
      [
        "=>",
        "@<"
      ],
      [
        "B",
        "H"
      ],
      [
        ";",
        "=@"
      ],
      [
        "??",
        "?<"
      ],
      [
        "=>",
        "@"
      ],
      [
        "=@@",
        "=@@"
      ],
      [
        ">",
        "@>"
      ],
      [
        "??>??>",
        "?@"
      ],
      [
        "????????????????",
        "?????>"
      ],
      [
        "????????????????????????????????????????",
        "?>"
      ],
      [
        "I",
        "B"
      ],
      [
        "@=",
        "@@"
      ],
      [
        "7",
        "8"
      ],
      [
        "==",
        "<"
      ],
      [
        "????????????????????????????????",
        "????@"
      ],
      [
        ">>",
        "??>"
      ],
      [
        ">?@",
        "?@"
      ],
      [
        "??>>",
        "?>>"
      ],
      [
        "@=",
        ";"
      ],
      [
        "6",
        "9"
      ],
      [
        "@<",
        "<"
      ],
      [
        "8",
        "7"
      ],
      [
        ">>",
        "@?>"
      ],
      [
        "?????@",
        "?>"
      ],
      [
        "??>>",
        "?>"
      ],
      [
        "E",
        "G"
      ],
      [
        "=>",
        ";"
      ],
      [
        "@@",
        "@?@"
      ],
      [
        "???????>",
        "??>"
      ],
      [
        ">",
        "?="
      ],
      [
        "???????@",
        "??@"
      ],
      [
        "?@",
        "?"
      ],
      [
        "B",
        "AA"
      ],
      [
        "=",
        "??>"
      ],
      [
        "????????????????????????????????????????????????????????????????????????????????????????????????????????????????????????????????????????????????????????????????????????????????????????????????????????????????????????????????????????????????????????????????????????????????????????????????????????????????????????????????????????????????????????????????????????????????????????????????????????????????????????????????????????????????????????????????????????????????????????????????????????????????????????????????",
        "????????????????????????????????????????????????????????????????????????????????????????????????????????????????????????????????"
      ],
      [
        "A",
        "BA"
      ],
      [
        "@@",
        ">?@"
      ],
      [
        "????",
        "@>>"
      ],
      [
        "9",
        "6"
      ],
      [
        "????????",
        "??"
      ],
      [
        ">",
        "=>"
      ],
      [
        "?@",
        "@?@@?@"
      ],
      [
        "C",
        "H"
      ],
      [
        "?@",
        "@>"
      ],
      [
        "G",
        "F"
      ],
      [
        "?>",
        "??>??>??>??>"
      ],
      [
        "????????????????????????????",
        "?>?@"
      ],
      [
        "??",
        ":"
      ],
      [
        ">@",
        "?"
      ],
      [
        "@????????????????????????",
        "??@"
      ],
      [
        "????????????????",
        "??????>"
      ],
      [
        "????????????????????????????????????????????",
        "@"
      ],
      [
        "???@",
        "??@??@"
      ],
      [
        "@>>@>>",
        "@>>"
      ],
      [
        ">=",
        "="
      ],
      [
        "????????????????????????????????????????????",
        "??@"
      ],
      [
        ">?@>?@",
        ">?@"
      ],
      [
        "I",
        "C"
      ],
      [
        "H",
        "E"
      ],
      [
        "????????????????????????????????????????????????????????????????????????????????????????????????????????????????????????????????????????????????????????????????????????????????????????????????????????????????????????????????????????????????????????????????",
        "????????????????????????????????????????????????????????????????????????????????????????????????????????????????????????????????"
      ],
      [
        ">",
        "@?>"
      ],
      [
        "????????????????????????????????",
        "?????>"
      ],
      [
        "???????????????????????????????????????????@",
        "???@"
      ],
      [
        "?>>",
        "??>??>"
      ],
      [
        ">=",
        ";"
      ],
      [
        "????????????????",
        "@"
      ],
      [
        "????????????????????????",
        "<"
      ],
      [
        "??<",
        "??<"
      ],
      [
        "????????????????????????????????????????????????????????????????",
        "????????????????????????????????????????????????"
      ],
      [
        "???>",
        "??>??>"
      ],
      [
        "F",
        "G"
      ],
      [
        "?@",
        "="
      ],
      [
        ">@",
        "??@"
      ],
      [
        "@>",
        "@@>"
      ],
      [
        "<>",
        "<"
      ],
      [
        "????",
        "@>?@"
      ],
      [
        "???>",
        "?>"
      ],
      [
        "7",
        "7"
      ],
      [
        "????????????????????????????????????????????",
        "??>"
      ],
      [
        "???>",
        "??>??>??>??>"
      ],
      [
        "=?",
        ";"
      ],
      [
        "I",
        "D"
      ],
      [
        "B",
        "BA"
      ],
      [
        "@=>",
        "@=>"
      ],
      [
        "????????????????",
        "??"
      ],
      [
        "6",
        "8"
      ],
      [
        "=?@",
        "="
      ],
      [
        "@<",
        ">"
      ],
      [
        "@@@@",
        "@@"
      ],
      [
        "????",
        "@@?@"
      ],
      [
        "@?>",
        "@>>"
      ],
      [
        "D",
        "H"
      ],
      [
        "@?@",
        ">"
      ],
      [
        "@>",
        "??@"
      ],
      [
        "@",
        "????>"
      ],
      [
        "=@",
        "=="
      ],
      [
        "????",
        "="
      ],
      [
        "????????????????????????",
        "?="
      ],
      [
        "@@",
        "<"
      ],
      [
        "@@",
        ">@@"
      ],
      [
        "J",
        "A"
      ],
      [
        "?>>?>>",
        "?>"
      ],
      [
        "AA",
        "C"
      ],
      [
        "@",
        "~"
      ],
      [
        "????",
        "@@>"
      ],
      [
        "?@",
        ">>"
      ],
      [
        "??@",
        ">?@"
      ],
      [
        "=@",
        ">>"
      ],
      [
        "????????????????????????????",
        "?"
      ],
      [
        "B",
        "I"
      ],
      [
        "8",
        "6"
      ],
      [
        ">>>>",
        ">>"
      ],
      [
        "@>?@",
        ">?@"
      ],
      [
        "@?>",
        "??>??>"
      ],
      [
        "A",
        "I"
      ],
      [
        "?????@",
        ">"
      ],
      [
        "?=",
        "??>"
      ],
      [
        "???????@",
        ">"
      ],
      [
        ":",
        "?@"
      ],
      [
        "?<",
        ";"
      ],
      [
        "J",
        "B"
      ],
      [
        "E",
        "H"
      ],
      [
        "????@",
        "??@??@"
      ],
      [
        "???@",
        "??@??@??@??@"
      ],
      [
        "????",
        "@?@"
      ],
      [
        "@",
        "????????????????????????????"
      ],
      [
        "????????????????????????????????????????????????????????????????",
        "???????????????????????????????@"
      ],
      [
        "????????????????????????????????????????????????????????????????????????????????????????????????????????????????????????????????????????????????????????????????????????????????????????????????????????????????????????????????????????????????????????????????",
        "????????????????????????????????????????????????????????????????????????????????????????????????????????????????????????????????????????????????????????????????????????????????????????????????"
      ],
      [
        "?>",
        "@>"
      ],
      [
        "?>@",
        "??@??@"
      ],
      [
        "?=",
        "@?="
      ],
      [
        "??",
        "=@?="
      ],
      [
        "5",
        "9"
      ],
      [
        "???>",
        "@"
      ],
      [
        "????????????????????????",
        "??>?@"
      ],
      [
        "????????????????????????????????????????????????????????????????",
        "???????????????????????????????>"
      ],
      [
        "?@>",
        "??>"
      ],
      [
        "????????????????????????????????????????????",
        "?@"
      ],
      [
        "G",
        "G"
      ],
      [
        "@?@",
        "@?"
      ],
      [
        "<",
        "????????????????????????"
      ],
      [
        "??????????????????????????>",
        "????????>??>??>??>??>"
      ],
      [
        "?>?@",
        ">"
      ],
      [
        ">?@>?@",
        ">?@>"
      ],
      [
        "????@",
        "??@??@??@"
      ],
      [
        "????>",
        "??>??>"
      ],
      [
        "H",
        "F"
      ],
      [
        "@?",
        ":"
      ],
      [
        "@?>@?>",
        "@?>"
      ],
      [
        "C",
        "I"
      ],
      [
        "????????",
        "?"
      ],
      [
        "??>",
        "?>"
      ],
      [
        "@>",
        "@?>"
      ],
      [
        "????????",
        "??@??@"
      ],
      [
        "=>",
        "?"
      ],
      [
        "????????",
        "??>??>"
      ],
      [
        ">",
        "?>>"
      ],
      [
        "???????????????????????????????????????????>",
        "???>"
      ],
      [
        ">@",
        "="
      ],
      [
        "?<",
        "?"
      ],
      [
        "????????????????????????????????????????",
        ">"
      ],
      [
        ">=",
        "?"
      ],
      [
        "????????????????????????",
        ">>"
      ],
      [
        ">?@",
        "?>"
      ],
      [
        "9",
        "5"
      ],
      [
        "????",
        ">@@"
      ],
      [
        "==",
        ";"
      ],
      [
        "?=",
        "??="
      ],
      [
        "?<>",
        "?<>"
      ],
      [
        "=@",
        "?"
      ],
      [
        "I",
        "E"
      ],
      [
        "@",
        "?????@"
      ],
      [
        "????????????????????????????????????????????",
        "?>?@"
      ],
      [
        "6",
        "7"
      ],
      [
        "J",
        "C"
      ],
      [
        "?>",
        ":"
      ],
      [
        "@?@",
        "??@??@"
      ],
      [
        "@<",
        "="
      ],
      [
        "@>",
        ":"
      ],
      [
        "F",
        "H"
      ],
      [
        "?@",
        "@@"
      ],
      [
        "?>",
        "@>>"
      ],
      [
        "7",
        "6"
      ],
      [
        "@<",
        ";"
      ],
      [
        "J",
        "D"
      ],
      [
        ":",
        ">@"
      ],
      [
        "????????????????????????????????????????????",
        "?@?>"
      ],
      [
        "????>",
        "??>??>??>"
      ],
      [
        "?<",
        "@"
      ],
      [
        "????????????????????????",
        ">?@"
      ],
      [
        "????????????????????????????????????????????????????????????????????????????????????????????????????????????????????????????????????????????????????????????????????????????????????????????????????????????????????????????????????????????????????????????????????????????????????????????????????????????????????????????????????????????????????????????????????????????????????????????????????????????????????????????????????????????????????????????????????????????????????????????????????????????????????????????????????????????????????????????????????????????????????????????????????????????????????????????????????????????????????????????????????????????????????????????????????????????????????????????????????????????????????????????????????????????????????????????????",
        "????????????????????????????????????????????????????????????????????????????????????????????????????????????????????????????????????????????????????????????????????????????????????????????????"
      ],
      [
        "??@",
        "??>"
      ],
      [
        "????????????????????????????",
        "?@?>"
      ],
      [
        "??>>",
        "??>"
      ],
      [
        "?=",
        ">>"
      ],
      [
        "8",
        "5"
      ],
      [
        ">?@>?@",
        ">?@>?@"
      ],
      [
        "????????????????????????",
        ">?>"
      ],
      [
        "???????>",
        ">"
      ],
      [
        "??=",
        "?"
      ],
      [
        "=",
        "@>"
      ],
      [
        "????????>",
        "??>??>"
      ],
      [
        "????????????????",
        "?"
      ],
      [
        "<>",
        ";"
      ],
      [
        ">>",
        "?>>"
      ],
      [
        "????????@",
        "??@??@"
      ],
      [
        "@?>",
        "?>"
      ],
      [
        "????????????????????????????????????????????????????????????????????????????????????????????????????????????????????????????????????????????????????????????????????????????????????????????????????????????????????????????????????????????????????????????????????????????????????????????????????????????????????????????????????????????????????????????????????????????????????????????????????????????????????????????????????????????????????????????????????????????????????????????????????????????????????????????????????????????????????????????????????????????????????????????????????????????????????????????????????????????????????????????????????????????????????????????????????????????????????????????????????????????????????????????????????????????????????????????????",
        "????????????????????????????????????????????????????????????????????????????????????????????????????????????????????????????????"
      ],
      [
        "?><",
        "?><"
      ],
      [
        "D",
        "I"
      ],
      [
        "????",
        "?="
      ],
      [
        "5",
        "8"
      ],
      [
        "?@@",
        "??@??@"
      ],
      [
        ">?@",
        ">??>"
      ],
      [
        "<=",
        "<"
      ],
      [
        "????@",
        "???@"
      ],
      [
        "K",
        "A"
      ],
      [
        "B",
        "J"
      ],
      [
        "@>",
        "???>"
      ],
      [
        "=>",
        "@>>"
      ],
      [
        "????????????????????????????????????????????????????????????????????????????????????????????????????????????????????????????????????????????????????????????????????????????????????????????????????????????????????????????????????????????????????????????????????????????????????????????????????????????????????????????????????????????????????????????????????????????????????????????????????????????????????????????????????????????????????????????????????????????????????????????????????????????????????????????????",
        "????????????????????????????????????????????????????????????????????????????????????????????????????????????????????????????????????????????????????????????????????????????????????????????????"
      ],
      [
        "=>",
        "@="
      ],
      [
        "??@",
        ">>"
      ],
      [
        "@??@",
        "?@"
      ],
      [
        ">?",
        ":"
      ],
      [
        ">?@",
        "??@??@"
      ],
      [
        "C",
        "BA"
      ],
      [
        "AA",
        "AA"
      ],
      [
        "????",
        ">>@"
      ],
      [
        "????????????????????????",
        "@@"
      ],
      [
        "4",
        "9"
      ],
      [
        "@<",
        "?"
      ],
      [
        "==",
        "="
      ],
      [
        "????>",
        "???>"
      ],
      [
        "G",
        "H"
      ],
      [
        ">>",
        ":"
      ],
      [
        "??",
        "<>"
      ],
      [
        "6",
        "6"
      ],
      [
        "?=",
        ":"
      ],
      [
        "A",
        "J"
      ],
      [
        "?=",
        "?>"
      ],
      [
        "=@@",
        "="
      ],
      [
        "K",
        "B"
      ],
      [
        "???????>",
        "??>??>"
      ],
      [
        "I",
        "F"
      ],
      [
        "??>",
        "@?>"
      ],
      [
        "@?@",
        "?>"
      ],
      [
        "????????????????????????????????????????????????????????????????????????????????????????????????????????????????????????????????????????????????????????????????????????????????????????????????????????????????????????????????????????????????????????????????",
        "????????????????????????????????????????????????????????????????"
      ],
      [
        "?>?@",
        "?@"
      ],
      [
        "@",
        "???"
      ],
      [
        "???????@",
        "??@??@"
      ],
      [
        "@<",
        "@"
      ],
      [
        "????????????????????????????",
        "@@"
      ],
      [
        "H",
        "G"
      ],
      [
        "??=",
        "??>??>"
      ],
      [
        "?>>",
        "@?>"
      ],
      [
        "??>",
        "@@"
      ],
      [
        "????????",
        "?@??@"
      ],
      [
        "J",
        "E"
      ],
      [
        "5",
        "7"
      ],
      [
        "?>?@",
        "??@"
      ],
      [
        "AB",
        "B"
      ],
      [
        "?<",
        ">@"
      ],
      [
        "@",
        "?????>"
      ],
      [
        "9",
        "4"
      ],
      [
        ">",
        "???@"
      ],
      [
        ">",
        "???>"
      ],
      [
        "????????????????????????????",
        ">?@"
      ],
      [
        "?>>",
        "?>??>"
      ],
      [
        "E",
        "I"
      ],
      [
        "??@",
        "?"
      ],
      [
        "<?",
        ";"
      ],
      [
        "?>>?>>",
        "??>"
      ],
      [
        "?>",
        "=>"
      ],
      [
        "=?",
        ":"
      ],
      [
        "C",
        "J"
      ],
      [
        "=@=",
        "<@"
      ],
      [
        "????????????????????????????????????????????",
        "?>"
      ],
      [
        "????????????????????????",
        "@?@"
      ],
      [
        "?????@",
        "?@"
      ],
      [
        "@?@",
        "@??@"
      ],
      [
        "?????@",
        "??@??@??@"
      ],
      [
        "@?",
        "<@"
      ],
      [
        ">>",
        "??@"
      ],
      [
        "?>",
        ">>>>"
      ],
      [
        "F",
        "I"
      ],
      [
        "?=>",
        "?>>"
      ],
      [
        "????????????????????????????????????????????",
        "@??@"
      ],
      [
        "K",
        "C"
      ],
      [
        "???@",
        ">?@"
      ],
      [
        "?@",
        ">?@"
      ],
      [
        ";",
        "????????????????????????"
      ],
      [
        "7",
        "5"
      ],
      [
        "=>",
        ":"
      ],
      [
        "=",
        "?="
      ],
      [
        "????????",
        "?>??>"
      ],
      [
        "?>>",
        "@@"
      ],
      [
        "@=",
        ":"
      ],
      [
        "????????????????????????????????????????????",
        ">??>"
      ],
      [
        "=",
        "??"
      ],
      [
        "???>",
        "???>"
      ],
      [
        "??>",
        "??@"
      ],
      [
        "AB",
        "C"
      ],
      [
        "?>>?>>?>>?>>",
        "?>>"
      ],
      [
        "K",
        "D"
      ],
      [
        "????????????????????????",
        "@?>"
      ],
      [
        "??????@",
        "?>"
      ],
      [
        "==",
        "?"
      ],
      [
        "?@",
        "<"
      ],
      [
        "=@",
        "<"
      ],
      [
        "8",
        "4"
      ],
      [
        "I",
        "G"
      ],
      [
        "????????????????????????????????????",
        "???"
      ],
      [
        "??>",
        "?"
      ],
      [
        "@>@@",
        ">@@>@@"
      ],
      [
        "????",
        "??>>"
      ],
      [
        "@>@@",
        ">@@"
      ],
      [
        "????????",
        "??>?@"
      ],
      [
        ":",
        "@@"
      ],
      [
        ">>",
        "@>?@"
      ],
      [
        "??=??=",
        "??=??="
      ],
      [
        "???????>",
        "@"
      ],
      [
        "H",
        "H"
      ],
      [
        "??@",
        "???@"
      ],
      [
        "@>>",
        "@"
      ],
      [
        "?>",
        "?>>"
      ],
      [
        "4",
        "8"
      ],
      [
        "??@??@??@??@",
        "??????????????????????????@"
      ],
      [
        "@?@",
        "@>"
      ],
      [
        "@?>",
        "?"
      ],
      [
        ">=",
        "?@"
      ],
      [
        "????????????????????????",
        ";"
      ],
      [
        "@?>",
        "??>??>??>??>"
      ],
      [
        "D",
        "J"
      ],
      [
        ">=",
        ":"
      ],
      [
        "???????????>",
        "??>"
      ],
      [
        "=>",
        "?="
      ],
      [
        "=>",
        "@@"
      ],
      [
        "@????????????????????????",
        "?"
      ],
      [
        "?@@?@",
        "@"
      ],
      [
        "<=",
        ";"
      ],
      [
        "??>",
        "="
      ],
      [
        "B",
        "K"
      ],
      [
        "???????????@",
        "??@"
      ],
      [
        "@>",
        "???@"
      ],
      [
        "?????>",
        "??>??>??>"
      ],
      [
        "????????????????????????????????????????????????????????????????????????????????????????????????????????????????????????????????????????????????????????????????????????????????????????????????????????????????????????????????????????????????????????????????????????????????????????????????????????????????????????????????????????????????????????????????????????????????????????????????????????????????????????????????????????????????????????????????????????????????????????????????????????????????????????????????????????????????????????????????????????????????????????????????????????????????????????????????????????????????????????????????????????????????????????????????????????????????????????????????????????????????????????????????????????????????????????????????",
        "????????????????????????????????????????????????????????????????"
      ],
      [
        ":",
        "=@"
      ],
      [
        "@?>",
        "="
      ],
      [
        "6",
        "5"
      ],
      [
        "G",
        "I"
      ],
      [
        "=>=",
        "=>="
      ],
      [
        "@>>",
        "@@"
      ],
      [
        "?>",
        "@?>@"
      ],
      [
        "J",
        "F"
      ],
      [
        "@????????????????????????",
        "???@"
      ],
      [
        "?>",
        "??"
      ],
      [
        "C",
        "AA"
      ],
      [
        "????????????????????????????????????????????????????????????????",
        "????????????????????????????"
      ],
      [
        ":@",
        "~"
      ],
      [
        ">>",
        "@?@"
      ],
      [
        "L",
        "A"
      ],
      [
        "?????>",
        "@"
      ],
      [
        "????????????????????????????????????????????",
        "???"
      ],
      [
        "<>@",
        "<>@"
      ],
      [
        "BA",
        "B"
      ],
      [
        "?<",
        ":"
      ],
      [
        ">?@",
        "="
      ],
      [
        "A",
        "CA"
      ],
      [
        "???>",
        "@@"
      ],
      [
        "K",
        "E"
      ],
      [
        "<?@",
        "<?@"
      ],
      [
        "?>>?>>",
        "?>>?>"
      ],
      [
        "?@",
        "@?"
      ],
      [
        "3",
        "9"
      ],
      [
        "????????????????????????????????????????",
        "@"
      ],
      [
        ">>",
        "<>"
      ],
      [
        "4",
        "7"
      ],
      [
        "@>",
        "@>"
      ],
      [
        ">?@",
        ">?"
      ],
      [
        ">>",
        "@>>@>>"
      ],
      [
        "????????????????????????",
        ">@"
      ],
      [
        "L",
        "B"
      ],
      [
        "=@",
        "=>"
      ],
      [
        ">=",
        "@@"
      ],
      [
        "==",
        "=="
      ],
      [
        "5",
        "6"
      ],
      [
        "????????????????????????????",
        "??"
      ],
      [
        "???@",
        "???@"
      ],
      [
        "7",
        "4"
      ],
      [
        "E",
        "J"
      ],
      [
        "?>?@",
        "?>"
      ],
      [
        "L",
        "C"
      ],
      [
        "????????????????????????",
        "?@@"
      ],
      [
        "????????????????????????????",
        "@?>"
      ],
      [
        "????????????????????????",
        "?@>"
      ],
      [
        "@?@",
        "@@"
      ],
      [
        "H",
        "I"
      ],
      [
        "A",
        "K"
      ],
      [
        "?????@",
        "?????@"
      ],
      [
        "=",
        "=>"
      ],
      [
        "?@",
        "???@"
      ],
      [
        "@>?@",
        "??@"
      ],
      [
        "9",
        "3"
      ],
      [
        "=?@",
        ">"
      ],
      [
        "><",
        ";"
      ],
      [
        "????????",
        ">?@"
      ],
      [
        "?????>",
        "??>??>??>??>"
      ],
      [
        "????????????????????????????????????????????????????????????????????????????????????????????????????????????????????????????????????????????????????????????????????????????????????????????????????????????????????????????????????????????????????????????????????????????????????????????????????????????????????????????????????????????????????????????????????????????????????????????????????????????????????????????????????????????????????????????????????????????????????????????????????????????????????????????????",
        "????????????????????????????????????????????????????????????????"
      ],
      [
        "=@=<@",
        "????????????????????????????????????????????????????????????????????????????????????????????????????????????????????????????????????????????????????????????????????????????????????????????????????????????????????????????????????????????????????????????????????????????????????????????????????????????????????????????????????????????????????????????????????????????????????????????????????????????????????????????????????????????????????????????????????????????????????????????????????????????????????????????????????????????????????????????????????????????????????????????????????????????????????????????????????????????????????????????????????????????????????????????????????????????????????????????????????????????????????????????????????????????????????????????????????????????????????????????????????????????????????????????????????????????????????????????????????????????????????????????????????????????????????????????????????????????????????????????????????????????????????????????????????????????????????????????????????????????????????????????????????????????????????????????????????????????????????????????????????????????????????????????????????????????????????????????????????????????????????????????????????????????????????????????????????????????????????????????????????????????????????????????????????????????????????????????????????????????????????????????????????????????????????????????????????????????????????????????????????????????????????????????????????????????????????????????????????????????????????????????????????????????????????????????????????????????????????????????????????????????????????????????????????????????????????????????????????????????????????????????????????????????????????????????????????????????????????????????????????????????????????????????????????????????????????????????????????????????????????????????????????????????????"
      ],
      [
        "????",
        "??@??@??@"
      ],
      [
        "?>?@",
        "??@??@??@??@"
      ],
      [
        "?>=",
        "?>>"
      ],
      [
        ">><",
        ">><"
      ],
      [
        "@>",
        "@??@"
      ],
      [
        "?=>?=>",
        "?=>"
      ],
      [
        "AA",
        "D"
      ],
      [
        "J",
        "G"
      ],
      [
        "3",
        "8"
      ],
      [
        "@????????????????????????",
        "?>"
      ],
      [
        "@<",
        ":"
      ],
      [
        ">>",
        ">="
      ],
      [
        "????????????????????????",
        "?>?@"
      ],
      [
        "?<",
        "?@"
      ],
      [
        "?????>",
        "?????>"
      ],
      [
        "????????????????????????",
        "@>"
      ],
      [
        "????????????????????????",
        "@>>"
      ],
      [
        "K",
        "F"
      ],
      [
        "?>>",
        "?"
      ],
      [
        "L",
        "D"
      ],
      [
        "?>=",
        "?>"
      ],
      [
        "????????????????????????????????????????????????????????????????????????????????????????????????????????????????????????????????",
        "????????????????????????????????????????????????"
      ],
      [
        "????????????????????????",
        "???="
      ],
      [
        "I",
        "H"
      ],
      [
        ">@@",
        ">?@"
      ],
      [
        "????????????",
        "?"
      ],
      [
        "F",
        "J"
      ],
      [
        "@><",
        "@><"
      ],
      [
        "@?<",
        "@?<"
      ],
      [
        "???>",
        "??@"
      ],
      [
        "?<=",
        "?<="
      ],
      [
        "??????????????????????????>????????>??>??>??>??>",
        "??????????????????????????>????????>??>??>??>??>"
      ],
      [
        "<",
        "<@"
      ],
      [
        "@?@@?@",
        "??@"
      ],
      [
        "??",
        "=="
      ],
      [
        "??>",
        "?>>"
      ],
      [
        "??????@",
        "?@"
      ],
      [
        "5",
        "5"
      ],
      [
        "8",
        "3"
      ],
      [
        "????@?>",
        "?@"
      ],
      [
        "C",
        "K"
      ],
      [
        "<",
        "?>"
      ],
      [
        "???>",
        "@?>"
      ],
      [
        "@>>",
        ">"
      ],
      [
        "@@?@",
        "@?@"
      ],
      [
        "??????????????????????????@",
        "????????@??@??@??@??@"
      ],
      [
        "????????????????????????????????????????????????????????????????????????????????????????????????????????????????????????????????",
        "???????????????@"
      ],
      [
        "????>",
        "??>??>??>??>"
      ],
      [
        "????????????????????????",
        "??>>"
      ],
      [
        "=>@<",
        "=@=<@????????????????????????????????????????????????????????????????????????????????????????????????????????????????????????????????????????????????????????????????????????????????????????????????????????????????????????????????????????????????????????????????????????????????????????????????????????????????????????????????????????????????????????????????????????????????????????????????????????????????????????????????????????????????????????????????????????????????????????????????????????????????????????????????????????????????????????????????????????????????????????????????????????????????????????????????????????????????????????????????????????????????????????????????????????????????????????????????????????????????????????????????????????????????????????????????????????????????????????????????????????????????????????????????????????????????????????????????????????????????????????????????????????????????????????????????????????????????????????????????????????????????????????????????????????????????????????????????????????????????????????????????????????????????????????????????????????????????????????????????????????????????????????????????????????????????????????????????????????????????????????????????????????????????????????????????????????????????????????????????????????????????????????????????????????????????????????????????????????????????????????????????????????????????????????????????????????????????????????????????????????????????????????????????????????????????????????????????????????????????????????????????????????????????????????????????????????????????????????????????????????????????????????????????????????????????????????????????????????????????????????????????????????????????????????????????????????????????????????????????????????????????????????????????????????????????????????????????????????????????????????????????????????????????"
      ],
      [
        "?=",
        "??@"
      ],
      [
        "==",
        ":"
      ],
      [
        "??>",
        "?????@"
      ],
      [
        "<?",
        ":"
      ],
      [
        "??",
        "?=>"
      ],
      [
        "@@@@",
        "?@"
      ],
      [
        "??>",
        ">@"
      ],
      [
        ">?@>?@",
        ">?@>?@>"
      ],
      [
        ">>",
        ">@"
      ],
      [
        "@@@@",
        "@"
      ],
      [
        ">?@",
        "@@"
      ],
      [
        "6",
        "4"
      ],
      [
        "??????????????????????????>",
        "??@"
      ],
      [
        "????????????????????????",
        "??="
      ],
      [
        "????????",
        "@?>"
      ],
      [
        "??>>",
        "?>??>"
      ],
      [
        ";",
        "<@"
      ],
      [
        "????????????????????????????????????????",
        "??"
      ],
      [
        "??>?@",
        "??@"
      ],
      [
        "2",
        "9"
      ],
      [
        "D",
        "BA"
      ],
      [
        "D",
        "K"
      ],
      [
        "<",
        ">>"
      ],
      [
        "??=??=",
        "??="
      ],
      [
        "????????????????????????????????????????????????????????????????????????????????????????????????????????????????????????????????",
        "???????????????>"
      ],
      [
        "L",
        "E"
      ],
      [
        "@@",
        ";"
      ],
      [
        "4",
        "6"
      ],
      [
        "C",
        "BB"
      ],
      [
        "G",
        "J"
      ],
      [
        "@<",
        ">@"
      ],
      [
        "??>",
        "???>"
      ],
      [
        "=>",
        "?>"
      ],
      [
        "???@",
        ">>"
      ],
      [
        "M",
        "A"
      ],
      [
        "???@",
        "??@??@??@"
      ],
      [
        "M",
        "B"
      ],
      [
        "?=",
        "@?>"
      ],
      [
        "@@",
        "@>"
      ],
      [
        "<>",
        ":"
      ],
      [
        "??>?@",
        ">?@"
      ],
      [
        "??????@",
        ">"
      ],
      [
        "3",
        "7"
      ],
      [
        "????????",
        "??@?>"
      ],
      [
        "????????????????????????????????????????????",
        "??@>"
      ],
      [
        ">",
        "~"
      ],
      [
        "@>@@",
        ">@"
      ],
      [
        "??@??@",
        "?@"
      ],
      [
        "M",
        "C"
      ],
      [
        ";?",
        "~"
      ],
      [
        ">",
        "?<"
      ],
      [
        ">",
        "@?@"
      ],
      [
        "????????????????????????????????",
        "?"
      ],
      [
        "@>",
        "??>??>"
      ],
      [
        ">@@>@@",
        ">@@>@@"
      ],
      [
        "I",
        "I"
      ],
      [
        "=",
        "@?>"
      ],
      [
        "????",
        "??>??>??>"
      ],
      [
        "????????",
        "?>?@"
      ],
      [
        "=@=",
        "=@="
      ],
      [
        "@?>@?>",
        "@"
      ],
      [
        "@<",
        "?@"
      ],
      [
        "J",
        "H"
      ],
      [
        "7",
        "3"
      ],
      [
        "???@",
        "?"
      ],
      [
        "@>",
        "=@?="
      ],
      [
        "B",
        "L"
      ],
      [
        ">>",
        ">?>"
      ],
      [
        "=",
        "??@"
      ],
      [
        "?????>",
        "??@"
      ],
      [
        "@>>",
        "?@"
      ],
      [
        "????????????????????????????????????????????????",
        "???????"
      ],
      [
        "?>@",
        "??>"
      ],
      [
        "K",
        "G"
      ],
      [
        "2",
        "8"
      ],
      [
        "?=<",
        "?=<"
      ],
      [
        "AB",
        "D"
      ],
      [
        "?==",
        "?="
      ],
      [
        "C",
        "CA"
      ],
      [
        "9",
        "2"
      ],
      [
        ":",
        "????????????????????????"
      ],
      [
        ">",
        "<@"
      ],
      [
        "A",
        "L"
      ],
      [
        "????????????????????????????????",
        "??"
      ],
      [
        "????",
        "=>"
      ],
      [
        "@@>",
        "@?>"
      ],
      [
        "E",
        "K"
      ],
      [
        "@?>@",
        "??@??@"
      ],
      [
        "5",
        "4"
      ],
      [
        "????????????????????????????????",
        "??>?@"
      ],
      [
        "????????????????????????",
        "??@??@"
      ],
      [
        "????????????????????????????????????",
        "??"
      ],
      [
        "???@",
        "?@??@"
      ],
      [
        "@??@",
        "?>"
      ],
      [
        "@?@@?@",
        "@?@@"
      ],
      [
        "?>>",
        "="
      ],
      [
        "L",
        "F"
      ],
      [
        "????????????????????????????",
        "@???@"
      ],
      [
        ">>>>",
        ">>>"
      ],
      [
        "?@",
        "??"
      ],
      [
        "@??@",
        ">"
      ],
      [
        "=<",
        ";"
      ],
      [
        "H",
        "J"
      ],
      [
        "8",
        "2"
      ],
      [
        "??@",
        "@@"
      ],
      [
        "BB",
        "B"
      ],
      [
        "4",
        "5"
      ],
      [
        "@>",
        "?="
      ],
      [
        "?<>",
        "?<"
      ],
      [
        "@?@@?@",
        "@"
      ],
      [
        ">",
        "?????????????????????????"
      ],
      [
        "?>",
        "=@"
      ],
      [
        "@>",
        "??"
      ],
      [
        "3",
        "6"
      ],
      [
        "?>>",
        "?="
      ],
      [
        "@?>",
        ">>"
      ],
      [
        "?>",
        "????????????????????????"
      ],
      [
        "?>>?>",
        "??>??>"
      ],
      [
        "?@",
        ">@"
      ],
      [
        "????????",
        ">@"
      ],
      [
        "@????????????????????????",
        "???>"
      ],
      [
        "?>",
        "?="
      ],
      [
        "????",
        "???="
      ],
      [
        ">@@",
        "="
      ],
      [
        "????????",
        "?@?>"
      ],
      [
        ";>",
        ";"
      ],
      [
        "????????????????????????????????????????????????",
        ">"
      ],
      [
        "F",
        "K"
      ],
      [
        "??>>",
        "?>>?>>"
      ],
      [
        "M",
        "D"
      ],
      [
        "????????????????????????????",
        "?>>"
      ],
      [
        "><",
        ":"
      ],
      [
        "???>",
        "??>??>??>"
      ],
      [
        "2",
        "7"
      ],
      [
        "?@>",
        "??>??>"
      ],
      [
        ":",
        "<@"
      ],
      [
        "C",
        "L"
      ],
      [
        "@=",
        "=@"
      ],
      [
        "??@",
        "@>"
      ],
      [
        "6",
        "3"
      ],
      [
        "????????",
        ">>"
      ],
      [
        "?????@",
        "??>"
      ],
      [
        "????>",
        "?>"
      ],
      [
        "???????????????????????????????????????????@???@",
        "???????????????????????????????????????????@???@"
      ],
      [
        "@<",
        "@@"
      ],
      [
        "????????????????????????>",
        "??"
      ],
      [
        "??@",
        "???>"
      ],
      [
        "<@",
        "~"
      ],
      [
        "1",
        "9"
      ],
      [
        "=>",
        "<="
      ],
      [
        "@@>",
        "?>"
      ],
      [
        "????????????????????????????????????????????",
        "??>@"
      ],
      [
        "????????????????????????",
        ":"
      ],
      [
        "B",
        "CA"
      ],
      [
        "????????????????????????????????????????????????????????????????",
        "????????????"
      ],
      [
        "G",
        "K"
      ],
      [
        ">>=",
        ">>=>"
      ],
      [
        "???@",
        "??>"
      ],
      [
        "@>?@",
        ">>"
      ],
      [
        "@????????????????????????",
        "?@@"
      ],
      [
        "M",
        "E"
      ],
      [
        "=",
        "??="
      ],
      [
        ">",
        "????"
      ],
      [
        "????????",
        "@@"
      ],
      [
        "<@",
        "?="
      ],
      [
        "?@@?@",
        "@??@"
      ],
      [
        "????????????????????????",
        "?<"
      ],
      [
        "???>",
        "?"
      ],
      [
        "<",
        "@>"
      ],
      [
        "??@??@",
        "?????@"
      ],
      [
        "?>>?>>?>>?>>",
        "?>"
      ],
      [
        "????????",
        "@>"
      ],
      [
        "J",
        "I"
      ],
      [
        "??>?@",
        "?>"
      ],
      [
        "@@?@",
        "??@"
      ],
      [
        "<=",
        ":"
      ],
      [
        "????@",
        "??@??@??@??@"
      ],
      [
        "????????????????????????????",
        ">>"
      ],
      [
        "???????>",
        "?@"
      ],
      [
        ">@",
        "<"
      ],
      [
        "@????????????????????????",
        ">"
      ],
      [
        "?>=?>=",
        "?>="
      ],
      [
        "D",
        "L"
      ],
      [
        "????????????",
        "@??@"
      ],
      [
        "????>",
        "@?>"
      ],
      [
        "?>",
        "@?@"
      ],
      [
        "7",
        "2"
      ],
      [
        "K",
        "H"
      ],
      [
        "????????????????????????????????????????????????",
        "@"
      ],
      [
        "??=",
        "@@"
      ],
      [
        ">?@>",
        "??>??>"
      ],
      [
        ">@",
        "?="
      ],
      [
        "????????????",
        ">??>"
      ],
      [
        ">@@",
        "??@"
      ],
      [
        "????????????????????",
        "???"
      ],
      [
        "<@@",
        "<@@"
      ],
      [
        "????@",
        "?????@"
      ],
      [
        "???>",
        "?>??>"
      ],
      [
        "?>>",
        "?>="
      ],
      [
        "?;",
        ";"
      ],
      [
        "M",
        "F"
      ],
      [
        "@??@",
        "@"
      ],
      [
        "?=",
        "=@"
      ],
      [
        "?@@?@",
        "??@"
      ],
      [
        "3",
        "5"
      ],
      [
        "@?@",
        "??"
      ],
      [
        ">>>>",
        ">"
      ],
      [
        "????????????????????????????????",
        "?@?>"
      ],
      [
        "><",
        "?"
      ],
      [
        "????????????????????????",
        "?>@"
      ],
      [
        "?@@",
        "??"
      ],
      [
        "1",
        "8"
      ],
      [
        "=",
        ">?@"
      ],
      [
        "???????????>",
        "?@"
      ],
      [
        "?>?@",
        "@"
      ],
      [
        ">@",
        "=>"
      ],
      [
        ">",
        "<>"
      ],
      [
        "@?@",
        "??@??@??@"
      ],
      [
        "?>>",
        "??>??>??>"
      ],
      [
        "???",
        ";"
      ],
      [
        "@?>@?>",
        "??>"
      ],
      [
        "@>=@",
        ">>"
      ],
      [
        "4",
        "4"
      ],
      [
        "?<",
        "=@"
      ],
      [
        "????????????????????????",
        "@??"
      ],
      [
        "B",
        "M"
      ],
      [
        "I",
        "J"
      ],
      [
        ">>",
        "=="
      ],
      [
        "????@",
        "???>"
      ],
      [
        "????????????????????????????",
        "??>?@"
      ],
      [
        "E",
        "L"
      ],
      [
        "?>",
        "?????>"
      ],
      [
        "???????????????????????????????????????????????@???????????????????????????????????????????????@",
        "???????????????????????????????????????????????@???????????????????????????????????????????????@"
      ],
      [
        "????????????????????????????????????????????????????????????????",
        "???????????????????????????@"
      ],
      [
        "=@@",
        "=@"
      ],
      [
        "=<",
        ":"
      ],
      [
        "AC",
        "B"
      ],
      [
        "=@=",
        "=@"
      ],
      [
        "=>",
        "=>"
      ],
      [
        "????????????????????????",
        ">@@"
      ],
      [
        "????>?@",
        "?>"
      ],
      [
        ">>",
        "?="
      ],
      [
        "2",
        "6"
      ],
      [
        "@?@",
        "?"
      ],
      [
        ";=",
        ";"
      ],
      [
        "N",
        "B"
      ],
      [
        "???@",
        "?????@"
      ],
      [
        "N",
        "A"
      ],
      [
        "?>",
        "@?="
      ],
      [
        "<",
        "??"
      ],
      [
        "?<",
        "@@"
      ],
      [
        "L",
        "G"
      ],
      [
        "@?>@?>@?>@?>",
        "@????????????????????????"
      ],
      [
        "?@",
        "??>"
      ],
      [
        ">?@",
        "??"
      ],
      [
        "D",
        "CA"
      ],
      [
        "??@??@",
        ">"
      ],
      [
        "=",
        "<@"
      ],
      [
        "9",
        "1"
      ],
      [
        "H",
        "K"
      ],
      [
        "?=>",
        "?>"
      ],
      [
        "?;",
        ":"
      ],
      [
        "5",
        "3"
      ],
      [
        "????????",
        "?@>"
      ],
      [
        "?=",
        "@>"
      ],
      [
        "<<",
        ";"
      ],
      [
        "@?>@?>",
        "@?>@"
      ],
      [
        "?;",
        ">"
      ],
      [
        "?>",
        "@@>"
      ],
      [
        "??@",
        "@?"
      ],
      [
        ">?",
        ";>"
      ],
      [
        ">>",
        "@="
      ],
      [
        "????????????????????????",
        "@??@"
      ],
      [
        "????????????????????????????????????????????????????????????????????????????????????????????????????????????????????????????????????????????????????????????????????????????????????????????????????????????????????????????????????????????????????????????????????????????????????????????????????????????????????????????????????????????????????????????????????????????????????????????????????????????????????????????????????????????????????????????????????????????????????????????????????????????????????????????????????????????????????????????????????????????????????????????????????????????????????????????????????????????????????????????????????????????????????????????????????????????????????????????????????????????????????????????????????????????????????????????????????????????????????????????????????????????????????????????????????????????????????????????????????????????????????????????????????????????????????????????????????????????????????????????????????????????????????????????????????????????????????????????????",
        "????????????????????????????????????????????????????????????????????????????????????????????????????????????????????????????????"
      ],
      [
        "K",
        "I"
      ],
      [
        ">@",
        "??>"
      ],
      [
        "????????",
        "???"
      ],
      [
        "@>>@>>",
        "@>>@>>"
      ],
      [
        "????????????????????????????",
        "?@??@"
      ],
      [
        "8",
        "1"
      ],
      [
        "??@",
        "?????@"
      ],
      [
        "<?@",
        "<"
      ],
      [
        "@@",
        "??>"
      ],
      [
        "????????????????",
        "???>?@"
      ],
      [
        "??@??@",
        "??"
      ],
      [
        "@@",
        "=>"
      ],
      [
        "????????????????????????",
        ">?"
      ],
      [
        "????????????",
        "?@??@"
      ],
      [
        "6",
        "2"
      ],
      [
        "@>",
        "=>"
      ],
      [
        "?>?@",
        ">?@"
      ],
      [
        "???????????????????????????????????????????????>???????????????????????????????????????????????>",
        "???????????????????????????????????????????????>???????????????????????????????????????????????>"
      ],
      [
        "<",
        "?="
      ],
      [
        "D",
        "AA"
      ],
      [
        "????????????????????????",
        "?>="
      ],
      [
        "N",
        "C"
      ],
      [
        "@>>",
        "@?>"
      ],
      [
        "???>",
        "?????>"
      ],
      [
        "??????????@",
        ">"
      ],
      [
        "J",
        "J"
      ],
      [
        "???>",
        ">?>"
      ],
      [
        "@>>",
        "@>"
      ],
      [
        "??=>",
        "?="
      ],
      [
        "@>>",
        "??>"
      ],
      [
        "L",
        "H"
      ],
      [
        "??>?@>",
        "??>??>"
      ],
      [
        "@<",
        "=@"
      ],
      [
        "????????",
        "??>>"
      ],
      [
        "????????????????????????????????????????????????",
        "??@"
      ],
      [
        "????????????????????????????????????????????????",
        "??????"
      ],
      [
        "????????????????????????????????",
        ">?@"
      ],
      [
        "A",
        "M"
      ],
      [
        "@@",
        "??"
      ],
      [
        "????????????????????????",
        ">="
      ],
      [
        "@@",
        ">="
      ],
      [
        "????????????????????????",
        "?@??@"
      ],
      [
        "???????????????????????????????????>",
        "??>??>??>??>"
      ],
      [
        "=",
        "?<"
      ],
      [
        "=>",
        "=<"
      ],
      [
        "?>>",
        "@>"
      ],
      [
        "??>?@",
        ">??>"
      ],
      [
        "><",
        "<"
      ],
      [
        "????>",
        "?????>"
      ],
      [
        "@?@@?@@?@@?@",
        "@"
      ],
      [
        "?=>?=>",
        "?="
      ],
      [
        "C",
        "AB"
      ],
      [
        "I",
        "K"
      ],
      [
        "1",
        "7"
      ],
      [
        "????????????????????????????????????????????????????????????????????????????????????????????????????????????????????????????????????????????????????????????????????????????????????????????????????????????????????????????????????????????????????????????????",
        "????????????????????????????????????????????????????????????????????????????????????????????????"
      ],
      [
        ">@@>@@",
        ">"
      ],
      [
        "@?>",
        "@?="
      ],
      [
        "????????????",
        "?>??>"
      ],
      [
        "N",
        "D"
      ],
      [
        "????????????????????????????????",
        "???>?@"
      ],
      [
        "?>",
        "@@?@"
      ],
      [
        "??@",
        "="
      ],
      [
        "??<",
        "?@"
      ],
      [
        "M",
        "G"
      ],
      [
        "D",
        "BB"
      ],
      [
        "F",
        "L"
      ],
      [
        "2",
        "5"
      ],
      [
        "N",
        "E"
      ],
      [
        "??>>",
        "?>>?>"
      ],
      [
        "????????????????????????????????????????????????",
        "?@"
      ],
      [
        ">@@",
        "?"
      ],
      [
        "4",
        "3"
      ],
      [
        "????????????????????????????????",
        "??@?>"
      ],
      [
        "????",
        ">="
      ],
      [
        ">@@",
        ">>"
      ],
      [
        "9",
        "0"
      ],
      [
        "?????>",
        "?>"
      ],
      [
        ">@",
        "???@"
      ],
      [
        "?>?@",
        ">>"
      ],
      [
        "<",
        "=>"
      ],
      [
        "@",
        ";>"
      ],
      [
        "????????????????????????????????????????????????????????????????",
        "???????????????????????????>"
      ],
      [
        "????????????????????????",
        "??>??>"
      ],
      [
        ";",
        ";@"
      ],
      [
        "C",
        "M"
      ],
      [
        "O",
        "A"
      ],
      [
        "????",
        "??="
      ],
      [
        ">",
        "???"
      ],
      [
        "@",
        "???????@"
      ],
      [
        "A",
        "DA"
      ],
      [
        "?>>",
        "?=>"
      ],
      [
        "????????????",
        "??"
      ],
      [
        "@????????????????????????",
        "???"
      ],
      [
        "?",
        "/"
      ],
      [
        "????>",
        "???@"
      ],
      [
        "????",
        "??>??>??>??>"
      ],
      [
        "0",
        "9"
      ],
      [
        "??????>",
        "?>"
      ],
      [
        "@?=@?=",
        "@?="
      ],
      [
        "????????????????????????????????????????????????",
        "??>"
      ],
      [
        "???>",
        ">?@"
      ],
      [
        "E",
        "BA"
      ],
      [
        "3",
        "4"
      ],
      [
        "?????????????????????????????????????????????>?@",
        "?????????????????????????????????????????????>?@"
      ],
      [
        ">?@>?@",
        "??@"
      ],
      [
        "@>=",
        "@>=@"
      ],
      [
        "=>",
        "@>"
      ],
      [
        "C",
        "CB"
      ],
      [
        "@????????????????????????",
        "@"
      ],
      [
        "??=",
        "?>="
      ],
      [
        "???>",
        ">>"
      ],
      [
        "5",
        "2"
      ],
      [
        "7",
        "1"
      ],
      [
        "<",
        ">="
      ],
      [
        "???@",
        "@?@"
      ],
      [
        ">>=",
        ">>"
      ],
      [
        "G",
        "L"
      ],
      [
        "<",
        "@?"
      ],
      [
        "<>",
        "?<"
      ],
      [
        ">",
        "?????????????????????????@"
      ],
      [
        "????>",
        "??@"
      ],
      [
        "??????>",
        "@"
      ],
      [
        "N",
        "F"
      ],
      [
        "?>@",
        "??"
      ],
      [
        "????>?@",
        "?@"
      ],
      [
        "?????@",
        "??@??@??@??@"
      ],
      [
        "????????????????????????????????",
        "???????????????????????????????"
      ],
      [
        "=",
        "?????????????????????????"
      ],
      [
        "H",
        "L"
      ],
      [
        "=",
        "@@>"
      ],
      [
        "=><",
        "=><"
      ],
      [
        "=?@",
        ">?@"
      ],
      [
        "D",
        "M"
      ],
      [
        "<=@",
        "<=@"
      ],
      [
        "@",
        "/"
      ],
      [
        "@",
        ";@"
      ],
      [
        "?;",
        "?"
      ],
      [
        "????",
        "??@??@??@??@"
      ],
      [
        "J",
        "K"
      ],
      [
        "<>",
        "<<"
      ],
      [
        "@;",
        "?"
      ],
      [
        "??>",
        "???@"
      ],
      [
        ";>",
        ":"
      ],
      [
        ">",
        "/"
      ],
      [
        "????????????????????????",
        "?@?>"
      ],
      [
        ">",
        "?>??>"
      ],
      [
        "BA",
        "C"
      ],
      [
        "?@@",
        "??@??@??@"
      ],
      [
        "E",
        "M"
      ],
      [
        "~",
        ">"
      ],
      [
        "@?>",
        ">@"
      ],
      [
        "@@",
        ":"
      ],
      [
        "@=",
        "?>"
      ],
      [
        "@",
        "????@"
      ],
      [
        ";?",
        ":"
      ],
      [
        "@?>",
        "??@"
      ],
      [
        "B",
        "N"
      ],
      [
        "=",
        "/"
      ],
      [
        "?@",
        "??@??@"
      ],
      [
        ">",
        "?>?@"
      ],
      [
        "???>",
        "="
      ],
      [
        "<<",
        ":"
      ],
      [
        "???>",
        ">@"
      ],
      [
        "@?>",
        "@>"
      ],
      [
        "3",
        "3"
      ],
      [
        "????????????????????????????????????????????????????????????????????????????????????????????????????????????????????????????????????????????????????????????????????????????????????????????????????????????????????????????????????????????????????????????????????????????????????????????????????????????????????????????????????????????????????????????????????????????????????????????????????????????????????????????????????????????????????????????????????????????????????????????????????????????????????????????????????????????????????????????????????????????????????????????????????????????????????????????????????????????????????????????????????????????????????????????????????????????????????????????????????????????????????????????????????????????????????????????????????????????????????????????????????????????????????????????????????????????????????????????????????????????????????????????????????????????????????????????????????????????????????????????????????????????????????????????????????????????????????????????????",
        "????????????????????????????????????????????????????????????????????????????????????????????????????????????????????????????????????????????????????????????????????????????????????????????????????????????????????????????????????????????????????????????????"
      ],
      [
        "4",
        "2"
      ],
      [
        "6",
        "1"
      ],
      [
        "@>?@",
        "@"
      ],
      [
        "@?@",
        ">>"
      ],
      [
        "??>?@",
        ">?@>"
      ],
      [
        "1",
        "5"
      ],
      [
        "L",
        "I"
      ],
      [
        "?@",
        "=>"
      ],
      [
        "?@",
        ";"
      ],
      [
        "?????????>",
        "??>??>"
      ],
      [
        "0",
        "8"
      ],
      [
        "@=",
        ">>"
      ],
      [
        "?????@",
        "@>"
      ],
      [
        "???=",
        "?"
      ],
      [
        "@?>@?>",
        "@??@"
      ],
      [
        "????????????????????????????>",
        "???>"
      ],
      [
        "E",
        "AA"
      ],
      [
        "=>@=>",
        "@=>"
      ],
      [
        "????????????????????????",
        "???>?@"
      ],
      [
        "????????????????????????????????????????????????????????????????????????????????????????????????????????????????????????????????????????????????????????????????????????????????????????????????????????????????????????????????????????????????????????????????????????????????????????????????????????????????????????????????????????????????????????????????????????????????????????????????????????????????????????????????????????????????????????????????????????????????????????????????????????????????????????????????????????????????????????????????????????????????????????????????????????????????????????????????????????????????????????????????????????????????????????????????????????????????????????????????????????????????????????????????????????????????????????????????????????????????????????????????????????????????????????????????????????????????????????????????????????????????????????????????????????????????????????????????????????????????????????????????????????????????????????????????????????????????????????????????",
        "????????????????????????????????????????????????????????????????????????????????????????????????????????????????????????????????????????????????????????????????????????????????????????????????"
      ],
      [
        "@@",
        "?="
      ],
      [
        "@>>",
        "?>"
      ],
      [
        "??;",
        "??;"
      ],
      [
        "??@??@",
        "?>"
      ],
      [
        ";=",
        ":"
      ],
      [
        "??>>",
        "?>??>??>"
      ],
      [
        "1",
        "6"
      ],
      [
        "???????????????????????????????????????????>???>",
        "???????????????????????????????????????????>???>"
      ],
      [
        "????????????????????????????????????????????????",
        "?>"
      ],
      [
        "=@?=",
        "@?="
      ],
      [
        "G",
        "M"
      ],
      [
        "????????",
        "@?@"
      ],
      [
        "???@",
        "@>"
      ],
      [
        ">>>",
        "?>>"
      ],
      [
        ">?@",
        "?"
      ],
      [
        ">?@",
        ">@"
      ],
      [
        "@>=",
        "@>"
      ],
      [
        "A",
        "N"
      ],
      [
        "???????????????????????????????????@",
        "??@??@??@??@"
      ],
      [
        ">?@",
        ">@@"
      ],
      [
        "?=>@",
        "=>"
      ],
      [
        "O",
        "B"
      ],
      [
        "????????",
        "?>@"
      ],
      [
        "?@",
        "@@@@"
      ],
      [
        "=?@",
        "=>"
      ],
      [
        "?=",
        "??"
      ],
      [
        "@>>",
        "?>>"
      ],
      [
        "?????>",
        "???>"
      ],
      [
        "????????????????????",
        "??"
      ],
      [
        "?????????????????????????????????????????????@?>",
        "?????????????????????????????????????????????@?>"
      ],
      [
        ">",
        "??>??>"
      ],
      [
        "????",
        "=?"
      ],
      [
        "8",
        "0"
      ],
      [
        "@>=",
        "?>="
      ],
      [
        "F",
        "M"
      ],
      [
        "=?@",
        ">?@>"
      ],
      [
        "O",
        "C"
      ],
      [
        ";",
        "/"
      ],
      [
        "K",
        "J"
      ],
      [
        "????????????????",
        "???"
      ],
      [
        "????????????????????????",
        ">>>"
      ],
      [
        ">=",
        "@>"
      ],
      [
        "==",
        "@@"
      ],
      [
        ">>",
        "@??@"
      ],
      [
        "????????????????????????????????",
        "@?>"
      ],
      [
        "?@",
        "???>"
      ],
      [
        "@;",
        ":"
      ],
      [
        "?;",
        "="
      ],
      [
        "?>>?>>",
        "??>??>"
      ],
      [
        "I",
        "L"
      ],
      [
        "????@",
        "??>"
      ],
      [
        "@;",
        "="
      ],
      [
        "B",
        "CB"
      ],
      [
        "@@>",
        "??>"
      ],
      [
        ">",
        "<="
      ],
      [
        "B",
        "O"
      ],
      [
        "@????????????????????????",
        "??>"
      ],
      [
        "?",
        ";@"
      ],
      [
        "0",
        "7"
      ],
      [
        "????????????????????????????????????????",
        "???"
      ],
      [
        "@",
        "???????>"
      ],
      [
        "????????????????????????",
        "=>"
      ],
      [
        "@>?@",
        ">?@>?@"
      ],
      [
        "?????????@",
        "??@??@"
      ],
      [
        "????????????????????????????????",
        "?>?@"
      ],
      [
        "??????????????????????????@",
        "?@"
      ],
      [
        "???>",
        "???@"
      ],
      [
        "?????@",
        "???@"
      ],
      [
        ">>",
        "??"
      ],
      [
        "????????",
        "?>>"
      ],
      [
        "????????????",
        "??>??>"
      ],
      [
        "????????????????????????????????????????",
        "?"
      ],
      [
        "@",
        "??="
      ],
      [
        "@?>",
        "???@"
      ],
      [
        "<",
        "/"
      ],
      [
        "M",
        "H"
      ],
      [
        "?=",
        ">?@"
      ],
      [
        "?>@",
        "??@??@??@"
      ],
      [
        "???????????@",
        "?>"
      ],
      [
        "?>@?>",
        "@??@"
      ],
      [
        ">=<",
        ">=<"
      ],
      [
        "????????????????????????????",
        "??@?>"
      ],
      [
        "@?>",
        "@?@"
      ],
      [
        "==",
        "?@"
      ],
      [
        ">@@>@@",
        ">@@"
      ],
      [
        "O",
        "D"
      ],
      [
        ">>",
        "@=>"
      ],
      [
        "N",
        "G"
      ],
      [
        "AC",
        "C"
      ],
      [
        "5",
        "1"
      ],
      [
        "@=<",
        "@=<"
      ],
      [
        "?>=?>=",
        "?>=?>="
      ],
      [
        "2",
        "4"
      ],
      [
        "????????????????",
        "?@??@"
      ],
      [
        "@?>",
        ">?>"
      ],
      [
        "BB",
        "C"
      ],
      [
        "@@",
        "=@"
      ],
      [
        "?>>",
        "@?@"
      ],
      [
        "<",
        ">?"
      ],
      [
        "AC",
        "D"
      ],
      [
        "????????????????????????",
        "@?"
      ],
      [
        "?;",
        "<"
      ],
      [
        "????>>",
        "@?>"
      ],
      [
        "?>",
        "??>?@"
      ],
      [
        "????????????????????????????????????????????????",
        "?"
      ],
      [
        "=?",
        ";="
      ],
      [
        "<:",
        "@"
      ],
      [
        "=",
        "@?@"
      ],
      [
        "C",
        "N"
      ],
      [
        "????????????????",
        "?>?@"
      ],
      [
        "@@",
        "@?"
      ],
      [
        ">",
        "????????????????????????>"
      ],
      [
        "??????@",
        "?>??>??>??>??>"
      ],
      [
        ";",
        "?>"
      ],
      [
        "7",
        "0"
      ],
      [
        ";",
        ">>"
      ],
      [
        "K",
        "K"
      ],
      [
        "M",
        "I"
      ],
      [
        "?>",
        "??="
      ],
      [
        "@>?@",
        "?@"
      ],
      [
        "AB",
        "E"
      ],
      [
        "????@@",
        ">?@"
      ],
      [
        "?>",
        "??>??>??>"
      ],
      [
        "=",
        "??>??>"
      ],
      [
        "D",
        "CB"
      ],
      [
        "@?@@?@",
        "@??@"
      ],
      [
        "@@",
        "@??@"
      ],
      [
        ">>=",
        "?>="
      ],
      [
        "??>",
        "?????>"
      ],
      [
        "@?@@?@",
        "??@??@"
      ],
      [
        "<",
        "@="
      ],
      [
        "@@?@",
        "@"
      ],
      [
        "?????@",
        "@"
      ],
      [
        "?=>",
        "?>>?>>"
      ],
      [
        "??@",
        "?@@?@"
      ],
      [
        "/",
        ">"
      ],
      [
        "0",
        "6"
      ],
      [
        "????????????????????????????",
        "?>??>"
      ],
      [
        "@>",
        "????????????????????????"
      ],
      [
        "???@",
        "?>?@"
      ],
      [
        "D",
        "N"
      ],
      [
        "@>?@",
        ">?@>"
      ],
      [
        "=",
        "~"
      ],
      [
        ":",
        ";@"
      ],
      [
        "?",
        "."
      ],
      [
        "O",
        "E"
      ],
      [
        "4",
        "1"
      ],
      [
        "??>?@",
        "?@"
      ],
      [
        "=<",
        "<"
      ],
      [
        "@?@",
        "@@@@"
      ],
      [
        "????????????????????????????????????????????????????????????????????????????????????????????????????????????????????????????????????????????????????????????????",
        "???????????????????????????????@"
      ],
      [
        "???>",
        "?>>"
      ],
      [
        "/",
        ":"
      ],
      [
        "????????????",
        "??@??@"
      ],
      [
        "????????????????????????????????????????",
        "???>?@"
      ],
      [
        "??>??>>",
        "?>??>"
      ],
      [
        "<>@",
        "<>"
      ],
      [
        "/",
        "@"
      ],
      [
        "?>",
        "????"
      ],
      [
        "P",
        "A"
      ],
      [
        ">>>>",
        ">="
      ],
      [
        "L",
        "J"
      ],
      [
        "P",
        "B"
      ],
      [
        "?>",
        "?????@"
      ],
      [
        "??>??>",
        "?????>"
      ],
      [
        "??=",
        "@?>"
      ],
      [
        "??????????>",
        "@"
      ],
      [
        "??",
        "<@"
      ],
      [
        "???>",
        "????>"
      ],
      [
        "2",
        "3"
      ],
      [
        "????>>",
        "??>"
      ],
      [
        "?>>",
        "??@"
      ],
      [
        "@>",
        "@?@"
      ],
      [
        "@>>",
        "?"
      ],
      [
        "=",
        "<>"
      ],
      [
        "????",
        "<"
      ],
      [
        "E",
        "N"
      ],
      [
        "???=",
        "?@"
      ],
      [
        "=>=",
        "=>=="
      ],
      [
        "????@",
        "??"
      ],
      [
        "???????@",
        "@"
      ],
      [
        "<@@",
        "<"
      ],
      [
        "@>",
        "<@"
      ],
      [
        "????????????????????????????????????????",
        "?>??>??>"
      ],
      [
        "????????????????",
        "?>??>"
      ],
      [
        "=@",
        ";"
      ],
      [
        "?@>",
        "??@"
      ],
      [
        "/",
        "="
      ],
      [
        "0",
        "5"
      ],
      [
        "@",
        "."
      ],
      [
        "J",
        "L"
      ],
      [
        "@????",
        "@??@"
      ],
      [
        ">@",
        "??"
      ],
      [
        "/",
        "?"
      ],
      [
        "/",
        "<"
      ],
      [
        "E",
        "CA"
      ],
      [
        ">@",
        ";"
      ],
      [
        "??>",
        ">>"
      ],
      [
        ">?@",
        "??@??@??@??@"
      ],
      [
        ">@",
        "????????????????????????"
      ],
      [
        "O",
        "F"
      ],
      [
        "3",
        "2"
      ],
      [
        "?=",
        "=>"
      ],
      [
        "???=",
        "@"
      ],
      [
        "@@",
        ">?"
      ],
      [
        "=@=",
        "=@=="
      ],
      [
        "??>?@",
        ">>"
      ],
      [
        "????????????????????????????????????????????????",
        "????"
      ],
      [
        "6",
        "0"
      ],
      [
        "H",
        "M"
      ],
      [
        ">@",
        "???>"
      ],
      [
        "????????????????????????????????????????????????????????????????",
        "??????????????????????????????>"
      ],
      [
        "/",
        ";"
      ],
      [
        "????????????????????????????????????????????????????????????????",
        "????????????????????????????>"
      ],
      [
        "B",
        "P"
      ],
      [
        "@?>",
        "??>??>??>"
      ],
      [
        "?????>",
        "@@"
      ],
      [
        "?==",
        "?>="
      ],
      [
        "@>@@",
        ">@@>"
      ],
      [
        "L",
        "K"
      ],
      [
        ">=",
        "?>"
      ],
      [
        "????????????????",
        "????@?>"
      ],
      [
        "?????????????????????????>",
        "?"
      ],
      [
        "?=",
        "?="
      ],
      [
        "????????@",
        "?????@"
      ],
      [
        ".",
        "<"
      ],
      [
        "????????????????",
        "?@?>"
      ],
      [
        "@?>",
        "@@>"
      ],
      [
        "????@@",
        "??@"
      ],
      [
        "????????????????????????",
        "?>?>"
      ],
      [
        ";<",
        ";"
      ],
      [
        "AA",
        "BA"
      ],
      [
        "?????????????????????????@",
        "?@"
      ],
      [
        "=",
        "?>="
      ],
      [
        ">?@",
        "@>"
      ],
      [
        "@?>@?>@?>@?>",
        "@"
      ],
      [
        "??>",
        "??"
      ],
      [
        "?>>?>>",
        "?>>??>"
      ],
      [
        "@@",
        "=@@"
      ],
      [
        "????????????????????????????????????????????????????????????????????????????????????????????????????????????????????????????????",
        "????????????"
      ],
      [
        "????????????????????????????????????????????????",
        "??"
      ],
      [
        ";",
        "@>"
      ],
      [
        ">",
        "."
      ],
      [
        "=?@",
        "=?"
      ],
      [
        "????????????????",
        "?????>?@"
      ],
      [
        "?>>?>",
        ">>"
      ],
      [
        "????????????????????????????????",
        "???@??@"
      ],
      [
        "????????????????????????????????????????????????????????????????????????????????????????????????????????????????????????????????????????????????????????????????",
        "???????????????????????????????>"
      ],
      [
        "?>",
        "@?"
      ],
      [
        "<",
        "=?"
      ],
      [
        "O",
        "G"
      ],
      [
        "=",
        "?>>"
      ],
      [
        "@?@@?@@?@@?@",
        "@?@"
      ],
      [
        "F",
        "N"
      ],
      [
        "????????????????????????????????????????????????????????????????????????????????????????????????????????????????????????????????????????????????????????????????????????????????????????????????????????????????????????????????????????????????????????????????????????????????????????????????????????????????????????????????????????????????????????????????????????????????????????????????????????????????????????????????????????????????????????????????????????????????????????????????????????????????????????????????????????????????????????????????????????????????????????????????????????????????????????????????????????????????????????????????",
        "????????????????????????????????????????????????????????????????????????????????"
      ],
      [
        ">>@>>",
        "@>"
      ],
      [
        "M",
        "J"
      ],
      [
        "??@",
        "?>?@"
      ],
      [
        ".",
        "="
      ],
      [
        "K",
        "L"
      ],
      [
        "????@",
        "?????@??@"
      ],
      [
        "???@",
        "???>"
      ],
      [
        "??@??@",
        "@?@??@"
      ],
      [
        "P",
        "C"
      ],
      [
        "1",
        "4"
      ],
      [
        ":",
        "/"
      ],
      [
        "????????????????????????????????????",
        "?"
      ],
      [
        "<",
        "?<"
      ],
      [
        "??????????????????????????>",
        "????????>"
      ],
      [
        ">?@>?@",
        ">??>"
      ],
      [
        "A",
        "O"
      ],
      [
        "????????????????????????????????????????????????????????????????????????????????????????????????????????????????????????????????????????????????????????????????????????????????????????????????????????????????????????????????????????????????????????????????????????????????????????????????????????????????????????????????????????????????????????????????????????????????????????????????????????????????????????????????????????????????????????????????????????????????????????????????????????????????????????????????",
        "????????????????????????????????????????????????????????????????????????????????????????????????????????????????"
      ],
      [
        ">@@",
        "?@@?@"
      ],
      [
        "??@??@",
        "????????????????????????????"
      ],
      [
        "@?>",
        "@????????????????????????"
      ],
      [
        ">@@",
        "@"
      ],
      [
        "<<",
        "<"
      ],
      [
        "3",
        "1"
      ],
      [
        "????????????",
        "??>?@"
      ],
      [
        "2",
        "2"
      ],
      [
        "??????>",
        "?????>"
      ],
      [
        "????????????????",
        "????>?@"
      ],
      [
        "????????????",
        "??@?>"
      ],
      [
        "?>@?>",
        "??>"
      ],
      [
        "G",
        "N"
      ],
      [
        ";",
        "."
      ],
      [
        "?>",
        ">>>"
      ],
      [
        "?>?@",
        "??>"
      ],
      [
        "???@",
        "@?>"
      ],
      [
        "?>??>",
        "???>"
      ],
      [
        "????????????????????",
        "?"
      ],
      [
        "=",
        "."
      ],
      [
        "C",
        "O"
      ],
      [
        "???????@",
        "?@"
      ],
      [
        "P",
        "D"
      ],
      [
        "?>;",
        "?>;"
      ],
      [
        "?<<",
        "?<<"
      ],
      [
        "?@",
        "????????????????????????"
      ],
      [
        "??@?@",
        "@??@"
      ],
      [
        "P",
        "E"
      ],
      [
        "<?",
        "~"
      ],
      [
        "I",
        "M"
      ],
      [
        "????????????????????????>",
        "??@"
      ],
      [
        "????????????????????????????????????????????????????????????????",
        "??????????????????????????????@"
      ],
      [
        "N",
        "H"
      ],
      [
        "?@?@",
        "?@"
      ],
      [
        "Q",
        "A"
      ],
      [
        "????????????????????????????",
        "@>>"
      ],
      [
        "<",
        "."
      ],
      [
        "????????????????",
        "????@@"
      ],
      [
        ">;",
        ":"
      ],
      [
        "???????@",
        "?>"
      ],
      [
        ">=",
        "@>="
      ],
      [
        "???@",
        "??"
      ],
      [
        "???>",
        "?@>"
      ],
      [
        "?@?>",
        "??>??>??>??>"
      ],
      [
        "=",
        "<?"
      ],
      [
        "???@",
        "@@"
      ],
      [
        "@?=",
        "?@"
      ],
      [
        "??=>",
        "?=>"
      ],
      [
        "??=",
        "?>"
      ],
      [
        ";<",
        ":"
      ],
      [
        ">>",
        "@@>"
      ],
      [
        ":",
        "."
      ],
      [
        "@?@",
        "="
      ],
      [
        "????????????????????????????????????????",
        "?>?@"
      ],
      [
        "??>>",
        "@?>"
      ],
      [
        "??????>",
        "??@"
      ],
      [
        "?>??>>",
        "?>>"
      ],
      [
        "????????",
        "?>?>"
      ],
      [
        "?>",
        "???>??>"
      ],
      [
        "@;",
        "<"
      ],
      [
        "????????????????",
        "@@"
      ],
      [
        "????????????????????????????",
        "??@??@"
      ],
      [
        "????????????????????????????",
        "@@>"
      ],
      [
        "?>>?>",
        ">>>>"
      ],
      [
        "AC",
        "E"
      ],
      [
        ".",
        ">"
      ],
      [
        "5",
        "0"
      ],
      [
        "????>",
        "?????>??>"
      ],
      [
        "@?@@?@",
        "@?@??@"
      ],
      [
        "H",
        "N"
      ],
      [
        "???>",
        "?@??@"
      ],
      [
        "<@",
        ";"
      ],
      [
        "=?@",
        ">>"
      ],
      [
        "?<",
        "??<"
      ],
      [
        "????????>",
        "?????>"
      ],
      [
        ">?>",
        "??>??>"
      ],
      [
        "?=",
        "??>??>"
      ],
      [
        "@?=",
        "?"
      ],
      [
        "@>",
        "?>>"
      ],
      [
        ">",
        ";@"
      ],
      [
        "?>=",
        "?@"
      ],
      [
        "?????@",
        ">>"
      ],
      [
        "???????????????????@",
        "?>"
      ],
      [
        "@",
        "?=>"
      ],
      [
        "@>",
        "@>>"
      ],
      [
        "?=",
        ">="
      ],
      [
        "????????????????????????????????????????????????????????????????????????????????????????????????????????????????????????????????????????????????????????????????????????????????????????????????????????????????????????????????????????????????????????????????",
        "????????????????????????????????????????????????????????????????????????????????"
      ],
      [
        "?=",
        "@?=@?="
      ],
      [
        ">@@>@@",
        ">@"
      ],
      [
        "?@>",
        "?>"
      ],
      [
        "??@?>",
        "@?>"
      ],
      [
        "?????????????????????????@",
        "?"
      ],
      [
        "@?@@",
        "??@??@"
      ],
      [
        "J",
        "M"
      ],
      [
        "????",
        "@="
      ],
      [
        "????????????????????????",
        "@="
      ],
      [
        "????????????????????????????",
        "?>??@"
      ],
      [
        "????",
        "=@"
      ],
      [
        "??@?>",
        "@??@"
      ],
      [
        "????????????????????????????????????",
        "??>?@"
      ],
      [
        "?<=",
        "?<"
      ],
      [
        "??????????????????????????>",
        "?????@"
      ],
      [
        "<",
        "=="
      ],
      [
        "N",
        "I"
      ],
      [
        ">>>>",
        "="
      ],
      [
        "@?>>",
        "?>>?>>?>>?>>"
      ],
      [
        "@",
        "-"
      ],
      [
        ".",
        ":"
      ],
      [
        "????????????????????????????????????????",
        "?@??@"
      ],
      [
        "??????@",
        "?????@"
      ],
      [
        "?",
        "-"
      ],
      [
        ">>",
        "????????????????????????"
      ],
      [
        ">=",
        "@?@"
      ],
      [
        "1",
        "3"
      ],
      [
        "?@?>",
        "?>"
      ],
      [
        ";?@",
        ";?@"
      ],
      [
        "?????>",
        "?"
      ],
      [
        "=",
        "<="
      ],
      [
        "P",
        "F"
      ],
      [
        "?@",
        ":"
      ],
      [
        "??@",
        "@??@"
      ],
      [
        "???@",
        "?@@?@"
      ],
      [
        "E",
        "BB"
      ],
      [
        "???????@",
        "?????@"
      ],
      [
        "0",
        "4"
      ],
      [
        "B",
        "DA"
      ],
      [
        "=;",
        ":"
      ],
      [
        "@",
        "}"
      ],
      [
        "????????????????????????????????",
        "@@"
      ],
      [
        "??>",
        "??="
      ],
      [
        "????????????????????????",
        "?>??>"
      ],
      [
        ".",
        "?"
      ],
      [
        "=",
        "-"
      ],
      [
        "Q",
        "B"
      ],
      [
        "??@??@??@??@??@",
        "??????????????????????????@"
      ],
      [
        ";>@",
        ";>@"
      ],
      [
        "?=",
        "@?@"
      ],
      [
        "?????????????????????????????????????????@",
        "??@??@"
      ],
      [
        "D",
        "O"
      ],
      [
        "2",
        "1"
      ],
      [
        "????????????????????????????????????????????",
        ">??@"
      ],
      [
        "=?@=?@",
        "="
      ],
      [
        "F",
        "BA"
      ],
      [
        "??????@",
        "??>"
      ],
      [
        "C",
        "P"
      ],
      [
        "?>>",
        "@>>@>>"
      ],
      [
        "????????????????????????????????????????????",
        "@??>"
      ],
      [
        "????????????????????????????????????????????????????????????????",
        "????????????????????????????@"
      ],
      [
        "@?=",
        "@"
      ],
      [
        "?<",
        "@?<"
      ],
      [
        "?@@",
        "??>"
      ],
      [
        "??????????????????????????@????????@??@??@??@??@",
        "??????????????????????????@????????@??@??@??@??@"
      ],
      [
        ";",
        "??"
      ],
      [
        "A",
        "DB"
      ],
      [
        "M",
        "K"
      ],
      [
        "????????????????????????????",
        ">?>"
      ],
      [
        "?>??>",
        "?????>??>"
      ],
      [
        ".",
        ";"
      ],
      [
        "??@",
        "????"
      ],
      [
        "???????????????????????????????????@",
        "?>"
      ],
      [
        "<",
        "<>"
      ],
      [
        "E",
        "O"
      ],
      [
        "L",
        "L"
      ],
      [
        ".",
        "@"
      ],
      [
        ">",
        "-"
      ],
      [
        "Q",
        "C"
      ],
      [
        "????????????????????????????????",
        "???>??>"
      ],
      [
        ">>;",
        ">>;"
      ],
      [
        "????????????????????????",
        "><"
      ],
      [
        ";",
        "@?"
      ],
      [
        "=>",
        "@=?@"
      ],
      [
        ":",
        "-"
      ],
      [
        "D",
        "DA"
      ],
      [
        "????",
        ">?"
      ],
      [
        "?>>?>>",
        "?>??>"
      ],
      [
        ">@@",
        ">?"
      ],
      [
        "????@?>",
        "?>"
      ],
      [
        "4",
        "0"
      ],
      [
        "@>>",
        "="
      ],
      [
        "@>@@?@",
        "@?@"
      ],
      [
        "F",
        "AA"
      ],
      [
        "@@@@",
        "?"
      ],
      [
        "????????????????????????????????????????????????????????????????",
        "??????????????????????????@"
      ],
      [
        ";",
        "-"
      ],
      [
        "=",
        "???"
      ],
      [
        "B",
        "Q"
      ],
      [
        "@?>",
        "???>"
      ],
      [
        "??>?@",
        ">?@>?@"
      ],
      [
        "????????@",
        "??@??@??@"
      ],
      [
        ">>",
        "@?"
      ],
      [
        ">?@",
        "??@??@??@"
      ],
      [
        "O",
        "H"
      ],
      [
        ">????????????????????????",
        "?@>"
      ],
      [
        "??>>",
        "?>>?>>?>>"
      ],
      [
        "@;",
        ";"
      ],
      [
        "????????????????????",
        "@??@"
      ],
      [
        "@?;",
        "@?;"
      ],
      [
        "????????????????????????????????",
        "????????????????????????>"
      ],
      [
        "?>??>",
        "?????>"
      ],
      [
        "????????????????????????????????????????????",
        "??@@"
      ],
      [
        "@@>",
        "@?>@?>"
      ],
      [
        "@",
        "??@??@??@"
      ],
      [
        "?>",
        "@="
      ],
      [
        "1",
        "2"
      ],
      [
        "?????????????????????????>",
        "??@"
      ],
      [
        "L",
        "M"
      ],
      [
        "?=>?=>",
        "?=>?=>"
      ],
      [
        "@@",
        "????????????????????????"
      ],
      [
        "N",
        "J"
      ],
      [
        "??>",
        "@>>"
      ],
      [
        "??@",
        ">?"
      ],
      [
        "????????????????????????????",
        ">@@"
      ],
      [
        "@@@@@@@@",
        "@@@@"
      ],
      [
        ";",
        "?="
      ],
      [
        "?>",
        "???"
      ],
      [
        "?>=",
        "??="
      ],
      [
        ">>",
        "???>"
      ],
      [
        "???@",
        "="
      ],
      [
        "???????????????????????????????????????????????>???????????????????????????????????????????????>",
        "???????????????????????????????????????????????>"
      ],
      [
        "???????????????????????????????????????????@",
        ">?@@"
      ],
      [
        ":?",
        "~"
      ],
      [
        "I",
        "N"
      ],
      [
        "@>",
        "@?>@?>"
      ],
      [
        "????????????????????????",
        "?=>"
      ],
      [
        "???@",
        "????@"
      ],
      [
        "BC",
        "D"
      ],
      [
        "@?@@?@",
        "@?"
      ],
      [
        "???????????????????????????????????????????????@???????????????????????????????????????????????@",
        "???????????????????????????????????????????????@"
      ],
      [
        "<",
        "?????????????????????????"
      ],
      [
        ";",
        ">?"
      ],
      [
        "=@",
        ":"
      ],
      [
        "?==",
        "?=>"
      ],
      [
        "<",
        "-"
      ],
      [
        "?>>",
        "?@>"
      ],
      [
        ">=",
        ">>"
      ],
      [
        "?>@",
        "???????>"
      ],
      [
        "@:",
        ":"
      ],
      [
        "@>?@",
        ">?@>?@>?@>"
      ],
      [
        "@@@@",
        "?@@?@"
      ],
      [
        "????",
        "@>??>"
      ],
      [
        "?>",
        "?>?@"
      ],
      [
        "??>>",
        "?>>?>>?>>?>>"
      ],
      [
        "-",
        ">"
      ],
      [
        "K",
        "M"
      ],
      [
        "?@",
        ">?"
      ]
    ]
  }
}